{
  "version": "1.0",
  "truncation": null,
  "padding": null,
  "added_tokens": [
    {
      "id": 0,
      "content": "<pad>",
      "single_word": false,
      "lstrip": false,
      "rstrip": false,
      "normalized": false,
      "special": true
    },
    {
      "id": 1,
      "content": "<bos>",
      "single_word": false,
      "lstrip": false,
      "rstrip": false,
      "normalized": false,
      "special": true
    },
    {
      "id": 2,
      "content": "<eos>",
      "single_word": false,
      "lstrip": false,
      "rstrip": false,
      "normalized": false,
      "special": true
    },
    {
      "id": 3,
      "content": "<unk>",
      "single_word": false,
      "lstrip": false,
      "rstrip": false,
      "normalized": false,
      "special": true
    },
    {
      "id": 4,
      "content": "<mask>",
      "single_word": false,
      "lstrip": false,
      "rstrip": false,
      "normalized": false,
      "special": true
    }
  ],
  "normalizer": null,
  "pre_tokenizer": {
    "type": "ByteLevel",
    "add_prefix_space": false,
    "trim_offsets": true,
    "use_regex": true
  },
  "post_processor": {
    "type": "ByteLevel",
    "add_prefix_space": true,
    "trim_offsets": false,
    "use_regex": true
  },
  "decoder": {
    "type": "ByteLevel",
    "add_prefix_space": true,
    "trim_offsets": true,
    "use_regex": true
  },
  "model": {
    "type": "BPE",
    "dropout": null,
    "unk_token": "[UNK]",
    "continuing_subword_prefix": null,
    "end_of_word_suffix": null,
    "fuse_unk": false,
    "byte_fallback": false,
    "ignore_merges": false,
    "vocab": {
      "<pad>": 0,
      "<bos>": 1,
      "<eos>": 2,
      "<unk>": 3,
      "<mask>": 4,
      "!": 5,
      "\"": 6,
      "#": 7,
      "$": 8,
      "%": 9,
      "'": 10,
      "(": 11,
      ")": 12,
      "*": 13,
      "+": 14,
      ",": 15,
      "-": 16,
      ".": 17,
      "/": 18,
      "0": 19,
      "1": 20,
      "2": 21,
      "3": 22,
      "4": 23,
      "5": 24,
      "6": 25,
      "7": 26,
      "8": 27,
      "9": 28,
      ":": 29,
      ";": 30,
      "<": 31,
      "=": 32,
      ">": 33,
      "?": 34,
      "@": 35,
      "A": 36,
      "B": 37,
      "C": 38,
      "D": 39,
      "E": 40,
      "F": 41,
      "G": 42,
      "H": 43,
      "I": 44,
      "J": 45,
      "K": 46,
      "L": 47,
      "M": 48,
      "N": 49,
      "O": 50,
      "P": 51,
      "Q": 52,
      "R": 53,
      "S": 54,
      "T": 55,
      "U": 56,
      "V": 57,
      "W": 58,
      "Y": 59,
      "Z": 60,
      "[": 61,
      "\\": 62,
      "]": 63,
      "^": 64,
      "_": 65,
      "`": 66,
      "a": 67,
      "b": 68,
      "c": 69,
      "d": 70,
      "e": 71,
      "f": 72,
      "g": 73,
      "h": 74,
      "i": 75,
      "j": 76,
      "k": 77,
      "l": 78,
      "m": 79,
      "n": 80,
      "o": 81,
      "p": 82,
      "q": 83,
      "r": 84,
      "s": 85,
      "t": 86,
      "u": 87,
      "v": 88,
      "w": 89,
      "x": 90,
      "y": 91,
      "z": 92,
      "{": 93,
      "}": 94,
      "«": 95,
      "³": 96,
      "º": 97,
      "¼": 98,
      "Ã": 99,
      "Ä": 100,
      "Å": 101,
      "â": 102,
      "Ċ": 103,
      "Ġ": 104,
      "Ģ": 105,
      "Ĥ": 106,
      "ħ": 107,
      "Ĩ": 108,
      "ĩ": 109,
      "Ī": 110,
      "Ĵ": 111,
      "Ķ": 112,
      "Ļ": 113,
      "ļ": 114,
      "Ľ": 115,
      "ĠĠ": 116,
      "ie": 117,
      "``": 118,
      "yt": 119,
      "ĊĠĠ": 120,
      "an": 121,
      "Ġi": 122,
      "Ġp": 123,
      "Ġs": 124,
      "re": 125,
      "or": 126,
      "ro": 127,
      "ĊĠĠĠ": 128,
      "anie": 129,
      "Pyt": 130,
      "st": 131,
      "on": 132,
      "en": 133,
      "Pytanie": 134,
      "```": 135,
      "Ġre": 136,
      "ur": 137,
      "de": 138,
      "ow": 139,
      "ĠĠĠĠ": 140,
      "li": 141,
      "Ġn": 142,
      "Ġd": 143,
      "rok": 144,
      "er": 145,
      "tur": 146,
      "Ġw": 147,
      "):": 148,
      "Ġt": 149,
      "Ġretur": 150,
      "Ġreturn": 151,
      "est": 152,
      "Ġa": 153,
      "ĊĠĠĠĠĠĠ": 154,
      "Ġpo": 155,
      "ÄĻ": 156,
      "Ġm": 157,
      "le": 158,
      "Ġk": 159,
      "ÅĤ": 160,
      "Ġin": 161,
      "hon": 162,
      "se": 163,
      "ĠA": 164,
      "def": 165,
      "ĊĠĠĠĠĠĠĠ": 166,
      "Ġb": 167,
      "ja": 168,
      "pyt": 169,
      "Åº": 170,
      "is": 171,
      "ni": 172,
      "Ġif": 173,
      "python": 174,
      "ac": 175,
      "dÅº": 176,
      "Ġc": 177,
      "Å¼": 178,
      "Ġf": 179,
      "Ġto": 180,
      "Od": 181,
      "pow": 182,
      "ra": 183,
      "ÅĽ": 184,
      "Ġz": 185,
      "iedÅº": 186,
      "powiedÅº": 187,
      "Ġ3": 188,
      "Krok": 189,
      "OdpowiedÅº": 190,
      "el": 191,
      "Ġ2": 192,
      "Ġv": 193,
      "Ġkrok": 194,
      "ap": 195,
      "ar": 196,
      "Äħ": 197,
      "ort": 198,
      "lo": 199,
      "len": 200,
      "na": 201,
      "uj": 202,
      "ze": 203,
      "Ġ1": 204,
      "ĠC": 205,
      "ge": 206,
      "mi": 207,
      "mp": 208,
      "od": 209,
      "ĠO": 210,
      "ent": 211,
      "wa": 212,
      "Ġ=": 213,
      "ĠP": 214,
      "Ġ`": 215,
      "Ġkroku": 216,
      "za": 217,
      "()": 218,
      "hi": 219,
      "il": 220,
      "sk": 221,
      "zy": 222,
      "ĠT": 223,
      "Ġx": 224,
      "Ġli": 225,
      "al": 226,
      "ek": 227,
      "ot": 228,
      "um": 229,
      "Ġ4": 230,
      "ĠI": 231,
      "ĠN": 232,
      "Ġpr": 233,
      "Ġst": 234,
      "Ġna": 235,
      "nia": 236,
      "acja": 237,
      "Ġfor": 238,
      "at": 239,
      "aÅĤ": 240,
      "ch": 241,
      "gor": 242,
      "in": 243,
      "lsk": 244,
      "lgor": 245,
      "ment": 246,
      "Ã³": 247,
      "Ġg": 248,
      "Ġj": 249,
      "Ġo": 250,
      "Ġr": 251,
      "ytm": 252,
      "liza": 253,
      "lement": 254,
      "ĠAna": 255,
      "ĠAlgor": 256,
      "Ġvis": 257,
      "ĠCo": 258,
      "mplement": 259,
      "ĠTest": 260,
      "ĠImplement": 261,
      "ĠAnaliza": 262,
      "ĠAlgorytm": 263,
      "ĠImplementacja": 264,
      ");": 265,
      "ad": 266,
      "zon": 267,
      "ĠJ": 268,
      "ĠQ": 269,
      "ĠR": 270,
      "ĠKrok": 271,
      "Ġsel": 272,
      "Ġpolsk": 273,
      "Ġ=>": 274,
      "ilnia": 275,
      "Ġself": 276,
      "==": 277,
      "PI": 278,
      "as": 279,
      "ce": 280,
      "ct": 281,
      "ser": 282,
      "ub": 283,
      "un": 284,
      "zi": 285,
      "Ġ'": 286,
      "ĠW": 287,
      "Ġâ": 288,
      "Ġpa": 289,
      "ĠsÅĤ": 290,
      "Ġsilnia": 291,
      "owa": 292,
      "Ġnot": 293,
      "isz": 294,
      "apisz": 295,
      "wazon": 296,
      "ĠNapisz": 297,
      "Ġjest": 298,
      "ĠQwazon": 299,
      "]:": 300,
      "for": 301,
      "ion": 302,
      "op": 303,
      "yja": 304,
      "ĠL": 305,
      "Ġe": 306,
      "ĢĶ": 307,
      "end": 308,
      "erge": 309,
      "Ġar": 310,
      "Å¼y": 311,
      "else": 312,
      "app": 313,
      "uje": 314,
      "Ġlist": 315,
      "ĠâĢĶ": 316,
      "yjaÅĽ": 317,
      "':": 318,
      "('": 319,
      "<=": 320,
      "ST": 321,
      "[:": 322,
      "]+": 323,
      "`.": 324,
      "aj": 325,
      "ax": 326,
      "fi": 327,
      "id": 328,
      "iÄĻ": 329,
      "lf": 330,
      "ne": 331,
      "ny": 332,
      "ob": 333,
      "oc": 334,
      "sort": 335,
      "to": 336,
      "ure": 337,
      "wi": 338,
      "Äĩ": 339,
      "Ġ+": 340,
      "ĠB": 341,
      "ĠF": 342,
      "ĠG": 343,
      "ĠM": 344,
      "ĠS": 345,
      "ĠZ": 346,
      "Ġlo": 347,
      "Ġlen": 348,
      "iej": 349,
      "Ġis": 350,
      "Ġse": 351,
      "rom": 352,
      "owy": 353,
      "ĠĠĠĠĠ": 354,
      "Ġdzi": 355,
      "Ġwhi": 356,
      "ĊĠĠĠĠĠĠĠĠĠĠĠ": 357,
      "self": 358,
      "Ġbest": 359,
      "nij": 360,
      "ach": 361,
      "Ġco": 362,
      "int": 363,
      "Ġpolsku": 364,
      "ĠsÅĤowa": 365,
      "yjaÅĽnij": 366,
      "Ġwhile": 367,
      "')": 368,
      "//": 369,
      "=[": 370,
      "ET": 371,
      "]);": 372,
      "ak": 373,
      "ast": 374,
      "ase": 375,
      "hort": 376,
      "kc": 377,
      "mo": 378,
      "os": 379,
      "rze": 380,
      "sz": 381,
      "sub": 382,
      "tor": 383,
      "tek": 384,
      "tÃ³": 385,
      "up": 386,
      "zie": 387,
      "Ġ/": 388,
      "ĠD": 389,
      "ĠK": 390,
      "ĠU": 391,
      "Ġl": 392,
      "Ġq": 393,
      "Ġu": 394,
      "Ġ```": 395,
      "ĠÅĽ": 396,
      "Ġelse": 397,
      "ien": 398,
      "ange": 399,
      "Ġpro": 400,
      "one": 401,
      "Ġres": 402,
      "dek": 403,
      "Ġdi": 404,
      "ÄĻt": 405,
      "Ġkod": 406,
      "ĠAPI": 407,
      "Ġfun": 408,
      "ÅĽc": 409,
      "arr": 410,
      "mid": 411,
      "mport": 412,
      "Ġprze": 413,
      "Ġprint": 414,
      "aÅĤa": 415,
      "aÅĤy": 416,
      "Ġrange": 417,
      "add": 418,
      "ĠWyjaÅĽnij": 419,
      "Ġpami": 420,
      "ergesort": 421,
      "Ġarr": 422,
      "append": 423,
      "ĠdziaÅĤa": 424,
      "Ġfunkc": 425,
      ").": 426,
      ")>": 427,
      ")):": 428,
      ")==": 429,
      ":-": 430,
      "={": 431,
      "API": 432,
      "EST": 433,
      "\\.": 434,
      "best": 435,
      "base": 436,
      "cz": 437,
      "di": 438,
      "ez": 439,
      "fs": 440,
      "from": 441,
      "it": 442,
      "jÄĻ": 443,
      "ki": 444,
      "kt": 445,
      "ker": 446,
      "max": 447,
      "num": 448,
      "oz": 449,
      "pop": 450,
      "ran": 451,
      "rzy": 452,
      "sze": 453,
      "sser": 454,
      "tt": 455,
      "tod": 456,
      "ue": 457,
      "ut": 458,
      "ver": 459,
      "wor": 460,
      "zen": 461,
      "Ġ*": 462,
      "Ġ0": 463,
      "ĠH": 464,
      "Ġy": 465,
      "Ġor": 466,
      "ĠPyt": 467,
      "Ġur": 468,
      "Ġde": 469,
      "Ġle": 470,
      "Ġdef": 471,
      "Ġja": 472,
      "and": 473,
      "Ġimport": 474,
      "Ġsub": 475,
      "red": 476,
      "rop": 477,
      "ener": 478,
      "owo": 479,
      "lin": 480,
      "Ġdl": 481,
      "Ġdo": 482,
      "ĠwiÄĻ": 483,
      "Ġtest": 484,
      "Ġasser": 485,
      "Ġme": 486,
      "ĠktÃ³": 487,
      "set": 488,
      "Ġbez": 489,
      "Ġcur": 490,
      "Å¼e": 491,
      "raw": 492,
      "ray": 493,
      "Ġza": 494,
      "Ġvs": 495,
      "naj": 496,
      "zyb": 497,
      "ektor": 498,
      "ĠNone": 499,
      "ĠREST": 500,
      "ĠRoz": 501,
      "Ġpolski": 502,
      "cej": 503,
      "ction": 504,
      "':'": 505,
      "[::-": 506,
      "ajÄħ": 507,
      "ocker": 508,
      "wiÄħ": 509,
      "ĠGET": 510,
      "Ġseen": 511,
      "ache": 512,
      "=[]": 513,
      "astAPI": 514,
      "ĠfunkcjÄĻ": 515,
      "todos": 516,
      "ĠPython": 517,
      "Ġjak": 518,
      "Ġassert": 519,
      "ĠktÃ³ra": 520,
      "ĠRozwiÄħ": 521,
      "''": 522,
      "'}": 523,
      "');": 524,
      "([": 525,
      "():": 526,
      ")+": 527,
      ")`.": 528,
      ")//": 529,
      "*=": 530,
      "+=": 531,
      "-]+": 532,
      ":]": 533,
      ":]:": 534,
      "=''": 535,
      "Di": 536,
      "EL": 537,
      "FS": 538,
      "ON": 539,
      "OU": 540,
      "OST": 541,
      "RL": 542,
      "RU": 543,
      "SON": 544,
      "[\\": 545,
      "],": 546,
      "]<": 547,
      "]=": 548,
      "__": 549,
      "aÅ¼": 550,
      "ami": 551,
      "ail": 552,
      "ca": 553,
      "cÄĻ": 554,
      "cja": 555,
      "dd": 556,
      "du": 557,
      "dod": 558,
      "duje": 559,
      "drom": 560,
      "dzie": 561,
      "dien": 562,
      "em": 563,
      "eÅĽ": 564,
      "ft": 565,
      "go": 566,
      "hcÄĻ": 567,
      "ia": 568,
      "ib": 569,
      "if": 570,
      "im": 571,
      "ka": 572,
      "ku": 573,
      "kure": 574,
      "ly": 575,
      "lle": 576,
      "mer": 577,
      "mnia": 578,
      "mergesort": 579,
      "mail": 580,
      "ng": 581,
      "niej": 582,
      "ncja": 583,
      "oE": 584,
      "pt": 585,
      "per": 586,
      "pal": 587,
      "pat": 588,
      "que": 589,
      "ry": 590,
      "rde": 591,
      "rÃ³": 592,
      "sc": 593,
      "ss": 594,
      "sy": 595,
      "sfor": 596,
      "sure": 597,
      "short": 598,
      "ts": 599,
      "ug": 600,
      "uÅ¼y": 601,
      "ve": 602,
      "vis": 603,
      "wie": 604,
      "Ġ-": 605,
      "Ġ7": 606,
      "ĠE": 607,
      "ĠV": 608,
      "Ġ[": 609,
      "Ġra": 610,
      "Ġhi": 611,
      "Ġand": 612,
      "ĠÅ¼e": 613,
      "iemnia": 614,
      "ane": 615,
      "any": 616,
      "Ġshort": 617,
      "Ġszyb": 618,
      "rodek": 619,
      "Ġrebase": 620,
      "Ġrekure": 621,
      "url": 622,
      "ower": 623,
      "lif": 624,
      "lik": 625,
      "Ġnowy": 626,
      "Ġdob": 627,
      "Ġdup": 628,
      "Ġdzie": 629,
      "Ġdfs": 630,
      "ĠduÅ¼y": 631,
      "Ġdany": 632,
      "ĠwÄħ": 633,
      "Ġwektor": 634,
      "Ġty": 635,
      "Ġale": 636,
      "Ġatt": 637,
      "Ġadd": 638,
      "Ġpot": 639,
      "ÄĻÄĩ": 640,
      "Ġmo": 641,
      "Ġmax": 642,
      "Ġmid": 643,
      "ĠmaÅĤy": 644,
      "Ġmergesort": 645,
      "ÅĤas": 646,
      "Ġinne": 647,
      "ĠbÅĤ": 648,
      "ning": 649,
      "acze": 650,
      "ĠchcÄĻ": 651,
      "Å¼s": 652,
      "Ġfib": 653,
      "Ġtod": 654,
      "ram": 655,
      "radien": 656,
      "Ġznaj": 657,
      "Ġziemnia": 658,
      "arch": 659,
      "array": 660,
      "Äħd": 661,
      "log": 662,
      "lop": 663,
      "losure": 664,
      "ujÄĻ": 665,
      "ĠCache": 666,
      "get": 667,
      "ention": 668,
      "Ġ==": 669,
      "ĠPod": 670,
      "ĠPop": 671,
      "ĠPrze": 672,
      "())": 673,
      "Ġlini": 674,
      "alan": 675,
      "alse": 676,
      "ate": 677,
      "ing": 678,
      "Ġgradien": 679,
      "Ġob": 680,
      "ĠCoT": 681,
      "ĠJak": 682,
      "ĠJSON": 683,
      "ĠRe": 684,
      "ces": 685,
      "Ġpalin": 686,
      "ĠsÅĤowo": 687,
      "ĠLRU": 688,
      "Ġemail": 689,
      "Ġelif": 690,
      "Å¼ywa": 691,
      "ĠlistÄĻ": 692,
      "]+=": 693,
      "fib": 694,
      "nych": 695,
      "ĠFastAPI": 696,
      "ĠMoE": 697,
      "Ġlog": 698,
      "Ġcolle": 699,
      "move": 700,
      "ĠURL": 701,
      "Ġuser": 702,
      "ĠÅĽrodek": 703,
      "Ġdiv": 704,
      "ÄĻta": 705,
      "Ġkodzi": 706,
      "ÅĽci": 707,
      "ÅĽcie": 708,
      "ĠpamiÄĻÄĩ": 709,
      "ĠpamiÄĻta": 710,
      "\\.-]+": 711,
      "dian": 712,
      "kty": 713,
      "nums": 714,
      "ransfor": 715,
      "verse": 716,
      "zenie": 717,
      "Ġurlop": 718,
      "redDi": 719,
      "Ġdlacze": 720,
      "ĠwiÄĻcej": 721,
      "Ġmedian": 722,
      "ctions": 723,
      "=[];": 724,
      "ĠRozwiÄħÅ¼": 725,
      "aÅ¼de": 726,
      "rderedDi": 727,
      "Ġrekurencja": 728,
      "ĠwÄħtek": 729,
      "Ġattention": 730,
      "Ġziemniaku": 731,
      "ĠPopraw": 732,
      "Ġgradient": 733,
      "Ġpalindrom": 734,
      "Ġcollections": 735,
      "ransformer": 736,
      "Ġdlaczego": 737,
      "rderedDict": 738,
      "ĠPythonie": 739,
      "11": 740,
      "!=": 741,
      "\")": 742,
      "\"/": 743,
      "$'": 744,
      "',": 745,
      "']": 746,
      "'^": 747,
      "(*": 748,
      "(\"/": 749,
      ")-": 750,
      ")]": 751,
      ")`": 752,
      "){": 753,
      ")<=": 754,
      "+$'": 755,
      ",']": 756,
      "09": 757,
      "12": 758,
      "22": 759,
      "62": 760,
      ":]+": 761,
      "=(": 762,
      "@[\\": 763,
      "AV": 764,
      "CP": 765,
      "CT": 766,
      "Docker": 767,
      "DEL": 768,
      "Er": 769,
      "ECT": 770,
      "FastAPI": 771,
      "False": 772,
      "GB": 773,
      "Hel": 774,
      "IN": 775,
      "LM": 776,
      "LO": 777,
      "NT": 778,
      "None": 779,
      "OM": 780,
      "OrderedDict": 781,
      "PU": 782,
      "Po": 783,
      "Ps": 784,
      "POST": 785,
      "QL": 786,
      "ROU": 787,
      "ROM": 788,
      "Sc": 789,
      "Sy": 790,
      "SEL": 791,
      "SQL": 792,
      "TP": 793,
      "TTP": 794,
      "WyjaÅĽ": 795,
      "WyjaÅĽnij": 796,
      "Wit": 797,
      "Zad": 798,
      "[-": 799,
      "[',": 800,
      "]==": 801,
      "]`.": 802,
      "])`.": 803,
      "]!=": 804,
      "av": 805,
      "az": 806,
      "are": 807,
      "ali": 808,
      "aza": 809,
      "aÅ¼y": 810,
      "amo": 811,
      "adek": 812,
      "aSc": 813,
      "bi": 814,
      "bli": 815,
      "bny": 816,
      "bug": 817,
      "balan": 818,
      "ci": 819,
      "ck": 820,
      "cl": 821,
      "cp": 822,
      "cy": 823,
      "cie": 824,
      "cur": 825,
      "chi": 826,
      "czy": 827,
      "cal": 828,
      "ciej": 829,
      "dk": 830,
      "ds": 831,
      "dy": 832,
      "dan": 833,
      "dÅĤ": 834,
      "dis": 835,
      "dra": 836,
      "dzen": 837,
      "docker": 838,
      "dly": 839,
      "ej": 840,
      "ep": 841,
      "et": 842,
      "eÅº": 843,
      "esz": 844,
      "ebug": 845,
      "fa": 846,
      "fun": 847,
      "fak": 848,
      "gi": 849,
      "gl": 850,
      "gow": 851,
      "gest": 852,
      "gram": 853,
      "ig": 854,
      "iv": 855,
      "ix": 856,
      "ist": 857,
      "ise": 858,
      "ini": 859,
      "iÅ¼": 860,
      "import": 861,
      "ipt": 862,
      "ick": 863,
      "jo": 864,
      "jek": 865,
      "jrzy": 866,
      "jsze": 867,
      "jdÅĤ": 868,
      "ko": 869,
      "kie": 870,
      "ken": 871,
      "kÄĻ": 872,
      "kÅĤ": 873,
      "kal": 874,
      "kuje": 875,
      "ksze": 876,
      "krop": 877,
      "ksy": 878,
      "la": 879,
      "ld": 880,
      "ln": 881,
      "lÄħ": 882,
      "lat": 883,
      "lower": 884,
      "lko": 885,
      "mmi": 886,
      "mat": 887,
      "no": 888,
      "nac": 889,
      "nÄħ": 890,
      "nuje": 891,
      "nien": 892,
      "ol": 893,
      "out": 894,
      "oft": 895,
      "ool": 896,
      "pl": 897,
      "pp": 898,
      "pr": 899,
      "py": 900,
      "pre": 901,
      "pli": 902,
      "pis": 903,
      "pand": 904,
      "praw": 905,
      "ping": 906,
      "padek": 907,
      "ql": 908,
      "qr": 909,
      "rs": 910,
      "ror": 911,
      "rien": 912,
      "rki": 913,
      "ript": 914,
      "sow": 915,
      "sza": 916,
      "sum": 917,
      "silnia": 918,
      "sper": 919,
      "spli": 920,
      "sql": 921,
      "te": 922,
      "th": 923,
      "tÅĤ": 924,
      "tuj": 925,
      "ture": 926,
      "towy": 927,
      "twor": 928,
      "tener": 929,
      "tnych": 930,
      "uch": 931,
      "user": 932,
      "urop": 933,
      "uduje": 934,
      "uÅ¼s": 935,
      "uick": 936,
      "ukrop": 937,
      "vach": 938,
      "wrÃ³": 939,
      "wnych": 940,
      "wnuje": 941,
      "wukrop": 942,
      "xper": 943,
      "xpand": 944,
      "yz": 945,
      "yÅĽ": 946,
      "ywa": 947,
      "yfi": 948,
      "ysy": 949,
      "ygi": 950,
      "zyt": 951,
      "zan": 952,
      "zanie": 953,
      "zent": 954,
      "zum": 955,
      "zuje": 956,
      "zdan": 957,
      "zgl": 958,
      "{':": 959,
      "{'}": 960,
      "}`": 961,
      "}):": 962,
      "}':": 963,
      "Åļ": 964,
      "âĨ": 965,
      "Ġ(": 966,
      "Ġ.": 967,
      "Ġ5": 968,
      "Ġ8": 969,
      "Ġ>": 970,
      "Ġ{": 971,
      "Ġro": 972,
      "Ġen": 973,
      "ĠÅº": 974,
      "ĠOd": 975,
      "Ġod": 976,
      "Ġek": 977,
      "Ġot": 978,
      "Ġum": 979,
      "Ġ<=": 980,
      "Ġ__": 981,
      "Ġget": 982,
      "Ġ}`": 983,
      "ĠÅļ": 984,
      "Ī«": 985,
      "ieÄĩ": 986,
      "iekt": 987,
      "ytmi": 988,
      "ant": 989,
      "Ġid": 990,
      "Ġpor": 991,
      "Ġpat": 992,
      "Ġpowa": 993,
      "ĠpÄĻt": 994,
      "Ġput": 995,
      "Ġpower": 996,
      "Ġpiv": 997,
      "Ġser": 998,
      "ĠsÄħ": 999,
      "Ġsort": 1000,
      "Ġsze": 1001,
      "Ġsob": 1002,
      "Ġscal": 1003,
      "Ġsoft": 1004,
      "Ġspraw": 1005,
      "Ġsqr": 1006,
      "rect": 1007,
      "rening": 1008,
      "reverse": 1009,
      "refak": 1010,
      "oriÄĻ": 1011,
      "orld": 1012,
      "roces": 1013,
      "rodk": 1014,
      "rojek": 1015,
      "rozum": 1016,
      "aniem": 1017,
      "star": 1018,
      "stil": 1019,
      "staj": 1020,
      "stem": 1021,
      "storiÄĻ": 1022,
      "onac": 1023,
      "ontek": 1024,
      "ongest": 1025,
      "ontener": 1026,
      "Ġrege": 1027,
      "Ġredi": 1028,
      "Ġreverse": 1029,
      "Ġrepre": 1030,
      "del": 1031,
      "dem": 1032,
      "deque": 1033,
      "ders": 1034,
      "owny": 1035,
      "owej": 1036,
      "list": 1037,
      "lisk": 1038,
      "lica": 1039,
      "Ġnie": 1040,
      "Ġnum": 1041,
      "ĠniÅ¼": 1042,
      "Ġdx": 1043,
      "ĠdÃ³": 1044,
      "Ġdrop": 1045,
      "Ġdwukrop": 1046,
      "erate": 1047,
      "tura": 1048,
      "Ġwar": 1049,
      "ĠwÅĤas": 1050,
      "ĠwaÅ¼y": 1051,
      "ĠweÅº": 1052,
      "Ġwysy": 1053,
      "Ġwzgl": 1054,
      "Ġworld": 1055,
      "Ġtek": 1056,
      "Ġtak": 1057,
      "Ġtup": 1058,
      "Ġtwor": 1059,
      "Ġtransformer": 1060,
      "Ġtrening": 1061,
      "esteÅĽ": 1062,
      "Ġakty": 1063,
      "Ġapp": 1064,
      "Ġpod": 1065,
      "ÄĻki": 1066,
      "ÄĻdu": 1067,
      "ÄĻgow": 1068,
      "ÄĻdem": 1069,
      "Ġma": 1070,
      "Ġmod": 1071,
      "Ġmas": 1072,
      "Ġmerge": 1073,
      "Ġmiej": 1074,
      "ĠmajÄħ": 1075,
      "Ġmniej": 1076,
      "ĠmÄħd": 1077,
      "Ġmln": 1078,
      "ĠmyÅĽ": 1079,
      "leÅ¼": 1080,
      "left": 1081,
      "less": 1082,
      "Ġkwa": 1083,
      "ĠkaÅ¼de": 1084,
      "Ġkontek": 1085,
      "ÅĤot": 1086,
      "Ġint": 1087,
      "Ġindek": 1088,
      "search": 1089,
      "ĠAI": 1090,
      "ĠAss": 1091,
      "Ġby": 1092,
      "Ġbin": 1093,
      "Ġbase": 1094,
      "Ġbfs": 1095,
      "Ġbran": 1096,
      "Ġbug": 1097,
      "Ġbalan": 1098,
      "Ġbaz": 1099,
      "Ġbool": 1100,
      "Ġbuduje": 1101,
      "Ġblisk": 1102,
      "Ġbsearch": 1103,
      "pytanie": 1104,
      "isal": 1105,
      "nio": 1106,
      "acz": 1107,
      "ĠcaÅĤ": 1108,
      "Ġcache": 1109,
      "Ġclosure": 1110,
      "Ġczyt": 1111,
      "Å¼na": 1112,
      "Å¼aniem": 1113,
      "Ġflo": 1114,
      "Ġfast": 1115,
      "Ġfrien": 1116,
      "ĠtoÅ¼s": 1117,
      "Ġtoken": 1118,
      "rak": 1119,
      "raz": 1120,
      "ÅĽÄĩ": 1121,
      "Ġze": 1122,
      "Ġzas": 1123,
      "Ġzbalan": 1124,
      "Ġznac": 1125,
      "Ġzrozum": 1126,
      "ĠzÅĤot": 1127,
      "Ġ38": 1128,
      "elniej": 1129,
      "Ġ20": 1130,
      "Ġkrokami": 1131,
      "api": 1132,
      "aprojek": 1133,
      "ary": 1134,
      "arly": 1135,
      "arning": 1136,
      "arsza": 1137,
      "arytmi": 1138,
      "Äħca": 1139,
      "ortujÄĻ": 1140,
      "lenie": 1141,
      "naÅĤ": 1142,
      "ujÄħca": 1143,
      "ĠCOU": 1144,
      "ĠClosure": 1145,
      "ĠOrderedDict": 1146,
      "ĠObli": 1147,
      "ĠPanie": 1148,
      "ĠPÄĻt": 1149,
      "ĠPrzy": 1150,
      "ĠPOST": 1151,
      "ĠPare": 1152,
      "ĠProces": 1153,
      "().": 1154,
      "();": 1155,
      "skoc": 1156,
      "zysz": 1157,
      "zypadek": 1158,
      "ĠTo": 1159,
      "ĠTransformer": 1160,
      "Ġlicz": 1161,
      "ĠliÅĽcie": 1162,
      "Ġliczy": 1163,
      "alue": 1164,
      "ota": 1165,
      "umerate": 1166,
      "umacz": 1167,
      "ĠIdzie": 1168,
      "Ġprywa": 1169,
      "Ġprzypadek": 1170,
      "Ġstr": 1171,
      "Ġstop": 1172,
      "ĠstaÅĤy": 1173,
      "Ġstate": 1174,
      "Ġnawi": 1175,
      "ĠnajdÅĤ": 1176,
      "aty": 1177,
      "chach": 1178,
      "lska": 1179,
      "Ã³rki": 1180,
      "Ã³wnuje": 1181,
      "Ġgo": 1182,
      "Ġgad": 1183,
      "Ġgit": 1184,
      "Ġgener": 1185,
      "ĠgÃ³rki": 1186,
      "Ġof": 1187,
      "Ġout": 1188,
      "Ġover": 1189,
      "Ġopt": 1190,
      "Ġrun": 1191,
      "adane": 1192,
      "zony": 1193,
      "ĠJan": 1194,
      "ĠJeÅĽ": 1195,
      "ĠJav": 1196,
      "ĠJesteÅĽ": 1197,
      "ash": 1198,
      "ass": 1199,
      "asy": 1200,
      "ced": 1201,
      "unt": 1202,
      "Ġ''": 1203,
      "Ġ'([": 1204,
      "Ġ')]": 1205,
      "ĠWiÄĻ": 1206,
      "ĠWektor": 1207,
      "ĠWarsza": 1208,
      "ĠâĪ«": 1209,
      "Ġparam": 1210,
      "ĠQwazona": 1211,
      "ĠLÅ¼e": 1212,
      "ĠLCP": 1213,
      "ĠLLM": 1214,
      "ĠLep": 1215,
      "Ġexpand": 1216,
      "Ġearly": 1217,
      "Ġarray": 1218,
      "Ġarchi": 1219,
      "Ġlista": 1220,
      "(',']": 1221,
      "[:-": 1222,
      "file": 1223,
      "fitt": 1224,
      "new": 1225,
      "oby": 1226,
      "obne": 1227,
      "oczenie": 1228,
      "toÅĽci": 1229,
      "tolica": 1230,
      "with": 1231,
      "ĠBY": 1232,
      "ĠBFS": 1233,
      "ĠBaza": 1234,
      "ĠBig": 1235,
      "ĠBrak": 1236,
      "ĠFalse": 1237,
      "ĠFLO": 1238,
      "ĠFROM": 1239,
      "ĠGROU": 1240,
      "ĠGdy": 1241,
      "ĠMerge": 1242,
      "ĠMaÅĤy": 1243,
      "ĠMix": 1244,
      "ĠSzyb": 1245,
      "ĠStwor": 1246,
      "ĠSzan": 1247,
      "ĠSortujÄĻ": 1248,
      "ĠStolica": 1249,
      "ĠZa": 1250,
      "ĠZnaj": 1251,
      "ĠZrefak": 1252,
      "ĠZaprojek": 1253,
      "Ġset": 1254,
      "Ġsearch": 1255,
      "ĠdziÄĻki": 1256,
      "Ġcommi": 1257,
      "Ġcount": 1258,
      "')':'": 1259,
      "//=": 1260,
      "ETE": 1261,
      "rzebny": 1262,
      "szÄĻ": 1263,
      "subarray": 1264,
      "toryz": 1265,
      "tektura": 1266,
      "tÃ³w": 1267,
      "uplik": 1268,
      "Ġ/:": 1269,
      "ĠDocker": 1270,
      "ĠDFS": 1271,
      "ĠDebug": 1272,
      "ĠDuplik": 1273,
      "ĠKim": 1274,
      "ĠKaÅ¼de": 1275,
      "ĠKontener": 1276,
      "ĠKadane": 1277,
      "ĠUser": 1278,
      "ĠUÅ¼ywa": 1279,
      "Ġlcp": 1280,
      "Ġlongest": 1281,
      "Ġquick": 1282,
      "ĠuÅ¼ywa": 1283,
      "ĠÅĽred": 1284,
      "ĠÅĽwie": 1285,
      "Ġprodu": 1286,
      "Ġproces": 1287,
      "Ġprogram": 1288,
      "ĠproszÄĻ": 1289,
      "Ġdict": 1290,
      "Ġdistil": 1291,
      "Ġprzed": 1292,
      "Ġprzez": 1293,
      "Ġprzepis": 1294,
      "Ġprzeskoc": 1295,
      "Ġfunkcja": 1296,
      "={}):": 1297,
      "={')':'": 1298,
      "\\.\\": 1299,
      "czny": 1300,
      "item": 1301,
      "popleft": 1302,
      "popitem": 1303,
      "words": 1304,
      "ĠHAV": 1305,
      "ĠHTTP": 1306,
      "ĠHash": 1307,
      "Ġorygi": 1308,
      "Ġorders": 1309,
      "Ġuruch": 1310,
      "Ġdeque": 1311,
      "Ġdesc": 1312,
      "Ġdevach": 1313,
      "ĠleÅ¼y": 1314,
      "Ġleksy": 1315,
      "Ġlearning": 1316,
      "Ġsubarray": 1317,
      "linÄĻ": 1318,
      "Ġdla": 1319,
      "Ġdostaj": 1320,
      "ĠdolinÄĻ": 1321,
      "ĠwiÄĻc": 1322,
      "Ġtesty": 1323,
      "ĠtestujÄĻ": 1324,
      "Ġmemo": 1325,
      "ĠzaleÅ¼": 1326,
      "Ġzapytanie": 1327,
      "Ġpolskich": 1328,
      "':'[',": 1329,
      "':'{'}": 1330,
      "ajÄħcy": 1331,
      "ĠRozwiÄħzanie": 1332,
      "'}':'{'}": 1333,
      ":])": 1334,
      "=''.": 1335,
      "__(": 1336,
      "amia": 1337,
      "dzielenie": 1338,
      "imum": 1339,
      "rym": 1340,
      "rÃ³w": 1341,
      "scu": 1342,
      "shorten": 1343,
      "tswith": 1344,
      "wieksze": 1345,
      "ĠEurop": 1346,
      "ĠExper": 1347,
      "ĠVM": 1348,
      "ĠValue": 1349,
      "Ġraise": 1350,
      "Ġrate": 1351,
      "ĠhistoriÄĻ": 1352,
      "Ġshortener": 1353,
      "Ġszybki": 1354,
      "Ġszybciej": 1355,
      "likacja": 1356,
      "Ġdobrze": 1357,
      "Ġdobrym": 1358,
      "Ġdups": 1359,
      "Ġduplikacja": 1360,
      "Ġdziel": 1361,
      "Ġdzieli": 1362,
      "Ġdanym": 1363,
      "Ġdanych": 1364,
      "Ġwektory": 1365,
      "Ġtylko": 1366,
      "Ġtypy": 1367,
      "ĠpotÄĻgow": 1368,
      "Ġpotrzebny": 1369,
      "Ġmodel": 1370,
      "ĠmoÅ¼na": 1371,
      "ĠmaÅĤymi": 1372,
      "ÅĤasz": 1373,
      "ĠbÅĤÄħd": 1374,
      "ĠbÅĤÄĻdu": 1375,
      "Ġfibonac": 1376,
      "Ġtodo": 1377,
      "Ġtodos": 1378,
      "ĠznajdÅº": 1379,
      "Ġznajduje": 1380,
      "ĠPodsum": 1381,
      "ĠPodobne": 1382,
      "ĠPrzejrzy": 1383,
      "ĠPrzetÅĤ": 1384,
      "Ġliniowy": 1385,
      "Ġliniowo": 1386,
      "Ġobiekt": 1387,
      "Ġobraz": 1388,
      "ĠJakie": 1389,
      "ĠRebase": 1390,
      "ĠRedis": 1391,
      "Ġlogarytmi": 1392,
      "\\.-]+@[\\": 1393,
      "\\.-]+\\.\\": 1394,
      "Ġmediana": 1395,
      "ĠmedianÄĻ": 1396,
      "ĠPoprawka": 1397,
      "'^[\\": 1398,
      "(*)>": 1399,
      "120": 1400,
      "Dockerfile": 1401,
      "DELETE": 1402,
      "Error": 1403,
      "Hello": 1404,
      "ING": 1405,
      "PUT": 1406,
      "Polska": 1407,
      "System": 1408,
      "SELECT": 1409,
      "WyjaÅĽnien": 1410,
      "Witaj": 1411,
      "Zadanie": 1412,
      "alizuje": 1413,
      "amoÅĽÄĩ": 1414,
      "aScript": 1415,
      "class": 1416,
      "dratowy": 1417,
      "dzenia": 1418,
      "etrÃ³w": 1419,
      "function": 1420,
      "istant": 1421,
      "init": 1422,
      "join": 1423,
      "kÅĤad": 1424,
      "kalne": 1425,
      "lation": 1426,
      "match": 1427,
      "noÅĽci": 1428,
      "print": 1429,
      "sowane": 1430,
      "spertÃ³w": 1431,
      "split": 1432,
      "users": 1433,
      "uÅ¼szy": 1434,
      "wrÃ³Äĩ": 1435,
      "yfikuje": 1436,
      "zentujÄħca": 1437,
      "zdania": 1438,
      "âĨĴ": 1439,
      "Ġrobi": 1440,
      "Ġenumerate": 1441,
      "ĠÅºle": 1442,
      "ĠOdwrÃ³Äĩ": 1443,
      "ĠodpowiedÅº": 1444,
      "ĠekspertÃ³w": 1445,
      "Ġotoczenie": 1446,
      "Ġumowa": 1447,
      "ĠÅļrodk": 1448,
      "ĠporÃ³wnuje": 1449,
      "Ġpatrzy": 1450,
      "ĠpowaÅ¼aniem": 1451,
      "ĠpÄĻtli": 1452,
      "Ġpivota": 1453,
      "Ġserce": 1454,
      "Ġszefa": 1455,
      "ĠsobÄħ": 1456,
      "ĠscalajÄħcy": 1457,
      "Ġsoftmax": 1458,
      "Ġsprawdzenia": 1459,
      "Ġsqrt": 1460,
      "startswith": 1461,
      "Ġregex": 1462,
      "Ġredirect": 1463,
      "ĠreprezentujÄħca": 1464,
      "Ġnums": 1465,
      "ĠdÃ³ÅĤ": 1466,
      "Ġdropout": 1467,
      "Ġdwukropka": 1468,
      "ĠwartoÅĽci": 1469,
      "ĠwÅĤasnÄħ": 1470,
      "ĠwysyÅĤasz": 1471,
      "ĠwzglÄĻdem": 1472,
      "ĠtekÅĽcie": 1473,
      "Ġtuple": 1474,
      "Ġtworzy": 1475,
      "Ġaktywnych": 1476,
      "Ġmodyfikuje": 1477,
      "Ġmasz": 1478,
      "Ġmiejscu": 1479,
      "Ġmniejsze": 1480,
      "ĠmÄħdry": 1481,
      "ĠmyÅĽlÄħ": 1482,
      "Ġkwadratowy": 1483,
      "Ġkontekst": 1484,
      "Ġindeks": 1485,
      "ĠAssistant": 1486,
      "Ġbinary": 1487,
      "Ġbranchach": 1488,
      "Ġbalanced": 1489,
      "Ġbazowy": 1490,
      "Ġbliskie": 1491,
      "isalnum": 1492,
      "ĠcaÅĤkÄĻ": 1493,
      "Ġczytelniej": 1494,
      "Ġfloat": 1495,
      "Ġfastapi": 1496,
      "Ġfriendly": 1497,
      "ĠtoÅ¼samoÅĽÄĩ": 1498,
      "Ġzasoby": 1499,
      "Ġzbalansowane": 1500,
      "Ġznaczenie": 1501,
      "ĠzrozumieÄĩ": 1502,
      "ĠzÅĤoty": 1503,
      "ĠCOUNT": 1504,
      "ĠOblicz": 1505,
      "ĠPÄĻtla": 1506,
      "ĠPrzykÅĤad": 1507,
      "ĠPareto": 1508,
      "Ġliczb": 1509,
      "ĠIdziesz": 1510,
      "Ġprywatnych": 1511,
      "Ġstopping": 1512,
      "Ġstateless": 1513,
      "Ġnawiasy": 1514,
      "ĠnajdÅĤuÅ¼szy": 1515,
      "ĠgadajÄħ": 1516,
      "Ġgeneralizuje": 1517,
      "Ġouter": 1518,
      "Ġoverfitt": 1519,
      "Ġoptimum": 1520,
      "ĠJeÅĽli": 1521,
      "ĠJavaScript": 1522,
      "Ġ'([{':": 1523,
      "Ġ')]}':": 1524,
      "ĠWiÄĻcej": 1525,
      "ĠWarszawa": 1526,
      "ĠparametrÃ³w": 1527,
      "ĠLÅ¼ejsze": 1528,
      "ĠLepiej": 1529,
      "Ġarchitektura": 1530,
      "(',']':'[',": 1531,
      "ĠFLOPs": 1532,
      "ĠGROUP": 1533,
      "ĠMixture": 1534,
      "ĠSzybkie": 1535,
      "ĠStworzony": 1536,
      "ĠSzanowny": 1537,
      "ĠZnajdÅº": 1538,
      "ĠZrefaktoryz": 1539,
      "ĠZaprojektuj": 1540,
      "Ġcommit": 1541,
      "ĠDuplikaty": 1542,
      "ĠUÅ¼ywaj": 1543,
      "Ġquicksort": 1544,
      "ĠÅĽrednio": 1545,
      "ĠÅĽwiecie": 1546,
      "Ġprodukty": 1547,
      "Ġprogramy": 1548,
      "Ġdistillation": 1549,
      "Ġprzepisuje": 1550,
      "Ġprzeskoczysz": 1551,
      "={')':'(',']':'[',": 1552,
      "ĠHAVING": 1553,
      "ĠoryginaÅĤ": 1554,
      "Ġuruchamia": 1555,
      "Ġdescent": 1556,
      "Ġleksykalne": 1557,
      "Ġdostajesz": 1558,
      "ĠzaleÅ¼noÅĽci": 1559,
      "ĠEuropie": 1560,
      "ĠExperts": 1561,
      "ĠValueError": 1562,
      "ĠpotÄĻgowanie": 1563,
      "Ġfibonacci": 1564,
      "ĠPodsumuj": 1565,
      "ĠPrzejrzyj": 1566,
      "ĠPrzetÅĤumacz": 1567,
      "Ġobiektu": 1568,
      "Ġlogarytmiczny": 1569,
      "WyjaÅĽnienie": 1570,
      "ĠÅļrodkowej": 1571,
      "Ġoverfitting": 1572,
      "ĠZrefaktoryzuj": 1573,
      "={')':'(',']':'[','}':'{'}": 1574,
      "su": 1575,
      "Ġcza": 1576,
      "Ġczasu": 1577
    },
    "merges": [
      [
        "Ġ",
        "Ġ"
      ],
      [
        "i",
        "e"
      ],
      [
        "`",
        "`"
      ],
      [
        "y",
        "t"
      ],
      [
        "Ċ",
        "ĠĠ"
      ],
      [
        "a",
        "n"
      ],
      [
        "Ġ",
        "i"
      ],
      [
        "Ġ",
        "p"
      ],
      [
        "Ġ",
        "s"
      ],
      [
        "r",
        "e"
      ],
      [
        "o",
        "r"
      ],
      [
        "r",
        "o"
      ],
      [
        "ĊĠĠ",
        "Ġ"
      ],
      [
        "an",
        "ie"
      ],
      [
        "P",
        "yt"
      ],
      [
        "s",
        "t"
      ],
      [
        "o",
        "n"
      ],
      [
        "e",
        "n"
      ],
      [
        "Pyt",
        "anie"
      ],
      [
        "``",
        "`"
      ],
      [
        "Ġ",
        "re"
      ],
      [
        "u",
        "r"
      ],
      [
        "d",
        "e"
      ],
      [
        "o",
        "w"
      ],
      [
        "ĠĠ",
        "ĠĠ"
      ],
      [
        "l",
        "i"
      ],
      [
        "Ġ",
        "n"
      ],
      [
        "Ġ",
        "d"
      ],
      [
        "ro",
        "k"
      ],
      [
        "e",
        "r"
      ],
      [
        "t",
        "ur"
      ],
      [
        "Ġ",
        "w"
      ],
      [
        ")",
        ":"
      ],
      [
        "Ġ",
        "t"
      ],
      [
        "Ġre",
        "tur"
      ],
      [
        "Ġretur",
        "n"
      ],
      [
        "e",
        "st"
      ],
      [
        "Ġ",
        "a"
      ],
      [
        "ĊĠĠ",
        "ĠĠĠĠ"
      ],
      [
        "Ġp",
        "o"
      ],
      [
        "Ä",
        "Ļ"
      ],
      [
        "Ġ",
        "m"
      ],
      [
        "l",
        "e"
      ],
      [
        "Ġ",
        "k"
      ],
      [
        "Å",
        "Ĥ"
      ],
      [
        "Ġi",
        "n"
      ],
      [
        "h",
        "on"
      ],
      [
        "s",
        "e"
      ],
      [
        "Ġ",
        "A"
      ],
      [
        "de",
        "f"
      ],
      [
        "ĊĠĠĠĠĠĠ",
        "Ġ"
      ],
      [
        "Ġ",
        "b"
      ],
      [
        "j",
        "a"
      ],
      [
        "p",
        "yt"
      ],
      [
        "Å",
        "º"
      ],
      [
        "i",
        "s"
      ],
      [
        "n",
        "i"
      ],
      [
        "Ġi",
        "f"
      ],
      [
        "pyt",
        "hon"
      ],
      [
        "a",
        "c"
      ],
      [
        "d",
        "Åº"
      ],
      [
        "Ġ",
        "c"
      ],
      [
        "Å",
        "¼"
      ],
      [
        "Ġ",
        "f"
      ],
      [
        "Ġt",
        "o"
      ],
      [
        "O",
        "d"
      ],
      [
        "p",
        "ow"
      ],
      [
        "r",
        "a"
      ],
      [
        "Å",
        "Ľ"
      ],
      [
        "Ġ",
        "z"
      ],
      [
        "ie",
        "dÅº"
      ],
      [
        "pow",
        "iedÅº"
      ],
      [
        "Ġ",
        "3"
      ],
      [
        "K",
        "rok"
      ],
      [
        "Od",
        "powiedÅº"
      ],
      [
        "e",
        "l"
      ],
      [
        "Ġ",
        "2"
      ],
      [
        "Ġ",
        "v"
      ],
      [
        "Ġk",
        "rok"
      ],
      [
        "a",
        "p"
      ],
      [
        "a",
        "r"
      ],
      [
        "Ä",
        "ħ"
      ],
      [
        "or",
        "t"
      ],
      [
        "l",
        "o"
      ],
      [
        "l",
        "en"
      ],
      [
        "n",
        "a"
      ],
      [
        "u",
        "j"
      ],
      [
        "z",
        "e"
      ],
      [
        "Ġ",
        "1"
      ],
      [
        "Ġ",
        "C"
      ],
      [
        "g",
        "e"
      ],
      [
        "m",
        "i"
      ],
      [
        "m",
        "p"
      ],
      [
        "o",
        "d"
      ],
      [
        "Ġ",
        "O"
      ],
      [
        "en",
        "t"
      ],
      [
        "w",
        "a"
      ],
      [
        "Ġ",
        "="
      ],
      [
        "Ġ",
        "P"
      ],
      [
        "Ġ",
        "`"
      ],
      [
        "Ġkrok",
        "u"
      ],
      [
        "z",
        "a"
      ],
      [
        "(",
        ")"
      ],
      [
        "h",
        "i"
      ],
      [
        "i",
        "l"
      ],
      [
        "s",
        "k"
      ],
      [
        "z",
        "y"
      ],
      [
        "Ġ",
        "T"
      ],
      [
        "Ġ",
        "x"
      ],
      [
        "Ġ",
        "li"
      ],
      [
        "a",
        "l"
      ],
      [
        "e",
        "k"
      ],
      [
        "o",
        "t"
      ],
      [
        "u",
        "m"
      ],
      [
        "Ġ",
        "4"
      ],
      [
        "Ġ",
        "I"
      ],
      [
        "Ġ",
        "N"
      ],
      [
        "Ġp",
        "r"
      ],
      [
        "Ġs",
        "t"
      ],
      [
        "Ġn",
        "a"
      ],
      [
        "ni",
        "a"
      ],
      [
        "ac",
        "ja"
      ],
      [
        "Ġf",
        "or"
      ],
      [
        "a",
        "t"
      ],
      [
        "a",
        "ÅĤ"
      ],
      [
        "c",
        "h"
      ],
      [
        "g",
        "or"
      ],
      [
        "i",
        "n"
      ],
      [
        "l",
        "sk"
      ],
      [
        "l",
        "gor"
      ],
      [
        "m",
        "ent"
      ],
      [
        "Ã",
        "³"
      ],
      [
        "Ġ",
        "g"
      ],
      [
        "Ġ",
        "j"
      ],
      [
        "Ġ",
        "o"
      ],
      [
        "Ġ",
        "r"
      ],
      [
        "yt",
        "m"
      ],
      [
        "li",
        "za"
      ],
      [
        "le",
        "ment"
      ],
      [
        "ĠA",
        "na"
      ],
      [
        "ĠA",
        "lgor"
      ],
      [
        "Ġv",
        "is"
      ],
      [
        "ĠC",
        "o"
      ],
      [
        "mp",
        "lement"
      ],
      [
        "ĠT",
        "est"
      ],
      [
        "ĠI",
        "mplement"
      ],
      [
        "ĠAna",
        "liza"
      ],
      [
        "ĠAlgor",
        "ytm"
      ],
      [
        "ĠImplement",
        "acja"
      ],
      [
        ")",
        ";"
      ],
      [
        "a",
        "d"
      ],
      [
        "z",
        "on"
      ],
      [
        "Ġ",
        "J"
      ],
      [
        "Ġ",
        "Q"
      ],
      [
        "Ġ",
        "R"
      ],
      [
        "Ġ",
        "Krok"
      ],
      [
        "Ġs",
        "el"
      ],
      [
        "Ġpo",
        "lsk"
      ],
      [
        "Ġ=",
        ">"
      ],
      [
        "il",
        "nia"
      ],
      [
        "Ġsel",
        "f"
      ],
      [
        "=",
        "="
      ],
      [
        "P",
        "I"
      ],
      [
        "a",
        "s"
      ],
      [
        "c",
        "e"
      ],
      [
        "c",
        "t"
      ],
      [
        "s",
        "er"
      ],
      [
        "u",
        "b"
      ],
      [
        "u",
        "n"
      ],
      [
        "z",
        "i"
      ],
      [
        "Ġ",
        "'"
      ],
      [
        "Ġ",
        "W"
      ],
      [
        "Ġ",
        "â"
      ],
      [
        "Ġp",
        "a"
      ],
      [
        "Ġs",
        "ÅĤ"
      ],
      [
        "Ġs",
        "ilnia"
      ],
      [
        "ow",
        "a"
      ],
      [
        "Ġn",
        "ot"
      ],
      [
        "is",
        "z"
      ],
      [
        "ap",
        "isz"
      ],
      [
        "wa",
        "zon"
      ],
      [
        "ĠN",
        "apisz"
      ],
      [
        "Ġj",
        "est"
      ],
      [
        "ĠQ",
        "wazon"
      ],
      [
        "]",
        ":"
      ],
      [
        "f",
        "or"
      ],
      [
        "i",
        "on"
      ],
      [
        "o",
        "p"
      ],
      [
        "y",
        "ja"
      ],
      [
        "Ġ",
        "L"
      ],
      [
        "Ġ",
        "e"
      ],
      [
        "Ģ",
        "Ķ"
      ],
      [
        "en",
        "d"
      ],
      [
        "er",
        "ge"
      ],
      [
        "Ġa",
        "r"
      ],
      [
        "Å¼",
        "y"
      ],
      [
        "el",
        "se"
      ],
      [
        "ap",
        "p"
      ],
      [
        "uj",
        "e"
      ],
      [
        "Ġli",
        "st"
      ],
      [
        "Ġâ",
        "ĢĶ"
      ],
      [
        "yja",
        "ÅĽ"
      ],
      [
        "'",
        ":"
      ],
      [
        "(",
        "'"
      ],
      [
        "<",
        "="
      ],
      [
        "S",
        "T"
      ],
      [
        "[",
        ":"
      ],
      [
        "]",
        "+"
      ],
      [
        "`",
        "."
      ],
      [
        "a",
        "j"
      ],
      [
        "a",
        "x"
      ],
      [
        "f",
        "i"
      ],
      [
        "i",
        "d"
      ],
      [
        "i",
        "ÄĻ"
      ],
      [
        "l",
        "f"
      ],
      [
        "n",
        "e"
      ],
      [
        "n",
        "y"
      ],
      [
        "o",
        "b"
      ],
      [
        "o",
        "c"
      ],
      [
        "s",
        "ort"
      ],
      [
        "t",
        "o"
      ],
      [
        "u",
        "re"
      ],
      [
        "w",
        "i"
      ],
      [
        "Ä",
        "ĩ"
      ],
      [
        "Ġ",
        "+"
      ],
      [
        "Ġ",
        "B"
      ],
      [
        "Ġ",
        "F"
      ],
      [
        "Ġ",
        "G"
      ],
      [
        "Ġ",
        "M"
      ],
      [
        "Ġ",
        "S"
      ],
      [
        "Ġ",
        "Z"
      ],
      [
        "Ġ",
        "lo"
      ],
      [
        "Ġ",
        "len"
      ],
      [
        "ie",
        "j"
      ],
      [
        "Ġi",
        "s"
      ],
      [
        "Ġs",
        "e"
      ],
      [
        "ro",
        "m"
      ],
      [
        "ow",
        "y"
      ],
      [
        "ĠĠĠĠ",
        "Ġ"
      ],
      [
        "Ġd",
        "zi"
      ],
      [
        "Ġw",
        "hi"
      ],
      [
        "ĊĠĠĠĠĠĠ",
        "ĠĠĠĠĠ"
      ],
      [
        "se",
        "lf"
      ],
      [
        "Ġb",
        "est"
      ],
      [
        "ni",
        "j"
      ],
      [
        "ac",
        "h"
      ],
      [
        "Ġc",
        "o"
      ],
      [
        "in",
        "t"
      ],
      [
        "Ġpolsk",
        "u"
      ],
      [
        "ĠsÅĤ",
        "owa"
      ],
      [
        "yjaÅĽ",
        "nij"
      ],
      [
        "Ġwhi",
        "le"
      ],
      [
        "'",
        ")"
      ],
      [
        "/",
        "/"
      ],
      [
        "=",
        "["
      ],
      [
        "E",
        "T"
      ],
      [
        "]",
        ");"
      ],
      [
        "a",
        "k"
      ],
      [
        "a",
        "st"
      ],
      [
        "a",
        "se"
      ],
      [
        "h",
        "ort"
      ],
      [
        "k",
        "c"
      ],
      [
        "m",
        "o"
      ],
      [
        "o",
        "s"
      ],
      [
        "r",
        "ze"
      ],
      [
        "s",
        "z"
      ],
      [
        "s",
        "ub"
      ],
      [
        "t",
        "or"
      ],
      [
        "t",
        "ek"
      ],
      [
        "t",
        "Ã³"
      ],
      [
        "u",
        "p"
      ],
      [
        "z",
        "ie"
      ],
      [
        "Ġ",
        "/"
      ],
      [
        "Ġ",
        "D"
      ],
      [
        "Ġ",
        "K"
      ],
      [
        "Ġ",
        "U"
      ],
      [
        "Ġ",
        "l"
      ],
      [
        "Ġ",
        "q"
      ],
      [
        "Ġ",
        "u"
      ],
      [
        "Ġ",
        "```"
      ],
      [
        "Ġ",
        "ÅĽ"
      ],
      [
        "Ġ",
        "else"
      ],
      [
        "ie",
        "n"
      ],
      [
        "an",
        "ge"
      ],
      [
        "Ġp",
        "ro"
      ],
      [
        "on",
        "e"
      ],
      [
        "Ġre",
        "s"
      ],
      [
        "de",
        "k"
      ],
      [
        "Ġd",
        "i"
      ],
      [
        "ÄĻ",
        "t"
      ],
      [
        "Ġk",
        "od"
      ],
      [
        "ĠA",
        "PI"
      ],
      [
        "Ġf",
        "un"
      ],
      [
        "ÅĽ",
        "c"
      ],
      [
        "ar",
        "r"
      ],
      [
        "mi",
        "d"
      ],
      [
        "mp",
        "ort"
      ],
      [
        "Ġpr",
        "ze"
      ],
      [
        "Ġpr",
        "int"
      ],
      [
        "aÅĤ",
        "a"
      ],
      [
        "aÅĤ",
        "y"
      ],
      [
        "Ġr",
        "ange"
      ],
      [
        "ad",
        "d"
      ],
      [
        "ĠW",
        "yjaÅĽnij"
      ],
      [
        "Ġpa",
        "mi"
      ],
      [
        "erge",
        "sort"
      ],
      [
        "Ġar",
        "r"
      ],
      [
        "app",
        "end"
      ],
      [
        "Ġdzi",
        "aÅĤa"
      ],
      [
        "Ġfun",
        "kc"
      ],
      [
        ")",
        "."
      ],
      [
        ")",
        ">"
      ],
      [
        ")",
        "):"
      ],
      [
        ")",
        "=="
      ],
      [
        ":",
        "-"
      ],
      [
        "=",
        "{"
      ],
      [
        "A",
        "PI"
      ],
      [
        "E",
        "ST"
      ],
      [
        "\\",
        "."
      ],
      [
        "b",
        "est"
      ],
      [
        "b",
        "ase"
      ],
      [
        "c",
        "z"
      ],
      [
        "d",
        "i"
      ],
      [
        "e",
        "z"
      ],
      [
        "f",
        "s"
      ],
      [
        "f",
        "rom"
      ],
      [
        "i",
        "t"
      ],
      [
        "j",
        "ÄĻ"
      ],
      [
        "k",
        "i"
      ],
      [
        "k",
        "t"
      ],
      [
        "k",
        "er"
      ],
      [
        "m",
        "ax"
      ],
      [
        "n",
        "um"
      ],
      [
        "o",
        "z"
      ],
      [
        "p",
        "op"
      ],
      [
        "r",
        "an"
      ],
      [
        "r",
        "zy"
      ],
      [
        "s",
        "ze"
      ],
      [
        "s",
        "ser"
      ],
      [
        "t",
        "t"
      ],
      [
        "t",
        "od"
      ],
      [
        "u",
        "e"
      ],
      [
        "u",
        "t"
      ],
      [
        "v",
        "er"
      ],
      [
        "w",
        "or"
      ],
      [
        "z",
        "en"
      ],
      [
        "Ġ",
        "*"
      ],
      [
        "Ġ",
        "0"
      ],
      [
        "Ġ",
        "H"
      ],
      [
        "Ġ",
        "y"
      ],
      [
        "Ġ",
        "or"
      ],
      [
        "Ġ",
        "Pyt"
      ],
      [
        "Ġ",
        "ur"
      ],
      [
        "Ġ",
        "de"
      ],
      [
        "Ġ",
        "le"
      ],
      [
        "Ġ",
        "def"
      ],
      [
        "Ġ",
        "ja"
      ],
      [
        "an",
        "d"
      ],
      [
        "Ġi",
        "mport"
      ],
      [
        "Ġs",
        "ub"
      ],
      [
        "re",
        "d"
      ],
      [
        "ro",
        "p"
      ],
      [
        "en",
        "er"
      ],
      [
        "ow",
        "o"
      ],
      [
        "li",
        "n"
      ],
      [
        "Ġd",
        "l"
      ],
      [
        "Ġd",
        "o"
      ],
      [
        "Ġw",
        "iÄĻ"
      ],
      [
        "Ġt",
        "est"
      ],
      [
        "Ġa",
        "sser"
      ],
      [
        "Ġm",
        "e"
      ],
      [
        "Ġk",
        "tÃ³"
      ],
      [
        "se",
        "t"
      ],
      [
        "Ġb",
        "ez"
      ],
      [
        "Ġc",
        "ur"
      ],
      [
        "Å¼",
        "e"
      ],
      [
        "ra",
        "w"
      ],
      [
        "ra",
        "y"
      ],
      [
        "Ġz",
        "a"
      ],
      [
        "Ġv",
        "s"
      ],
      [
        "na",
        "j"
      ],
      [
        "zy",
        "b"
      ],
      [
        "ek",
        "tor"
      ],
      [
        "ĠN",
        "one"
      ],
      [
        "ĠR",
        "EST"
      ],
      [
        "ĠR",
        "oz"
      ],
      [
        "Ġpolsk",
        "i"
      ],
      [
        "ce",
        "j"
      ],
      [
        "ct",
        "ion"
      ],
      [
        "':",
        "'"
      ],
      [
        "[:",
        ":-"
      ],
      [
        "aj",
        "Äħ"
      ],
      [
        "oc",
        "ker"
      ],
      [
        "wi",
        "Äħ"
      ],
      [
        "ĠG",
        "ET"
      ],
      [
        "Ġse",
        "en"
      ],
      [
        "ach",
        "e"
      ],
      [
        "=[",
        "]"
      ],
      [
        "ast",
        "API"
      ],
      [
        "Ġfunkc",
        "jÄĻ"
      ],
      [
        "tod",
        "os"
      ],
      [
        "ĠPyt",
        "hon"
      ],
      [
        "Ġja",
        "k"
      ],
      [
        "Ġasser",
        "t"
      ],
      [
        "ĠktÃ³",
        "ra"
      ],
      [
        "ĠRoz",
        "wiÄħ"
      ],
      [
        "'",
        "'"
      ],
      [
        "'",
        "}"
      ],
      [
        "'",
        ");"
      ],
      [
        "(",
        "["
      ],
      [
        "(",
        "):"
      ],
      [
        ")",
        "+"
      ],
      [
        ")",
        "`."
      ],
      [
        ")",
        "//"
      ],
      [
        "*",
        "="
      ],
      [
        "+",
        "="
      ],
      [
        "-",
        "]+"
      ],
      [
        ":",
        "]"
      ],
      [
        ":",
        "]:"
      ],
      [
        "=",
        "''"
      ],
      [
        "D",
        "i"
      ],
      [
        "E",
        "L"
      ],
      [
        "F",
        "S"
      ],
      [
        "O",
        "N"
      ],
      [
        "O",
        "U"
      ],
      [
        "O",
        "ST"
      ],
      [
        "R",
        "L"
      ],
      [
        "R",
        "U"
      ],
      [
        "S",
        "ON"
      ],
      [
        "[",
        "\\"
      ],
      [
        "]",
        ","
      ],
      [
        "]",
        "<"
      ],
      [
        "]",
        "="
      ],
      [
        "_",
        "_"
      ],
      [
        "a",
        "Å¼"
      ],
      [
        "a",
        "mi"
      ],
      [
        "a",
        "il"
      ],
      [
        "c",
        "a"
      ],
      [
        "c",
        "ÄĻ"
      ],
      [
        "c",
        "ja"
      ],
      [
        "d",
        "d"
      ],
      [
        "d",
        "u"
      ],
      [
        "d",
        "od"
      ],
      [
        "d",
        "uje"
      ],
      [
        "d",
        "rom"
      ],
      [
        "d",
        "zie"
      ],
      [
        "d",
        "ien"
      ],
      [
        "e",
        "m"
      ],
      [
        "e",
        "ÅĽ"
      ],
      [
        "f",
        "t"
      ],
      [
        "g",
        "o"
      ],
      [
        "h",
        "cÄĻ"
      ],
      [
        "i",
        "a"
      ],
      [
        "i",
        "b"
      ],
      [
        "i",
        "f"
      ],
      [
        "i",
        "m"
      ],
      [
        "k",
        "a"
      ],
      [
        "k",
        "u"
      ],
      [
        "k",
        "ure"
      ],
      [
        "l",
        "y"
      ],
      [
        "l",
        "le"
      ],
      [
        "m",
        "er"
      ],
      [
        "m",
        "nia"
      ],
      [
        "m",
        "ergesort"
      ],
      [
        "m",
        "ail"
      ],
      [
        "n",
        "g"
      ],
      [
        "n",
        "iej"
      ],
      [
        "n",
        "cja"
      ],
      [
        "o",
        "E"
      ],
      [
        "p",
        "t"
      ],
      [
        "p",
        "er"
      ],
      [
        "p",
        "al"
      ],
      [
        "p",
        "at"
      ],
      [
        "q",
        "ue"
      ],
      [
        "r",
        "y"
      ],
      [
        "r",
        "de"
      ],
      [
        "r",
        "Ã³"
      ],
      [
        "s",
        "c"
      ],
      [
        "s",
        "s"
      ],
      [
        "s",
        "y"
      ],
      [
        "s",
        "for"
      ],
      [
        "s",
        "ure"
      ],
      [
        "s",
        "hort"
      ],
      [
        "t",
        "s"
      ],
      [
        "u",
        "g"
      ],
      [
        "u",
        "Å¼y"
      ],
      [
        "v",
        "e"
      ],
      [
        "v",
        "is"
      ],
      [
        "w",
        "ie"
      ],
      [
        "Ġ",
        "-"
      ],
      [
        "Ġ",
        "7"
      ],
      [
        "Ġ",
        "E"
      ],
      [
        "Ġ",
        "V"
      ],
      [
        "Ġ",
        "["
      ],
      [
        "Ġ",
        "ra"
      ],
      [
        "Ġ",
        "hi"
      ],
      [
        "Ġ",
        "and"
      ],
      [
        "Ġ",
        "Å¼e"
      ],
      [
        "ie",
        "mnia"
      ],
      [
        "an",
        "e"
      ],
      [
        "an",
        "y"
      ],
      [
        "Ġs",
        "hort"
      ],
      [
        "Ġs",
        "zyb"
      ],
      [
        "ro",
        "dek"
      ],
      [
        "Ġre",
        "base"
      ],
      [
        "Ġre",
        "kure"
      ],
      [
        "ur",
        "l"
      ],
      [
        "ow",
        "er"
      ],
      [
        "li",
        "f"
      ],
      [
        "li",
        "k"
      ],
      [
        "Ġn",
        "owy"
      ],
      [
        "Ġd",
        "ob"
      ],
      [
        "Ġd",
        "up"
      ],
      [
        "Ġd",
        "zie"
      ],
      [
        "Ġd",
        "fs"
      ],
      [
        "Ġd",
        "uÅ¼y"
      ],
      [
        "Ġd",
        "any"
      ],
      [
        "Ġw",
        "Äħ"
      ],
      [
        "Ġw",
        "ektor"
      ],
      [
        "Ġt",
        "y"
      ],
      [
        "Ġa",
        "le"
      ],
      [
        "Ġa",
        "tt"
      ],
      [
        "Ġa",
        "dd"
      ],
      [
        "Ġpo",
        "t"
      ],
      [
        "ÄĻ",
        "Äĩ"
      ],
      [
        "Ġm",
        "o"
      ],
      [
        "Ġm",
        "ax"
      ],
      [
        "Ġm",
        "id"
      ],
      [
        "Ġm",
        "aÅĤy"
      ],
      [
        "Ġm",
        "ergesort"
      ],
      [
        "ÅĤ",
        "as"
      ],
      [
        "Ġin",
        "ne"
      ],
      [
        "Ġb",
        "ÅĤ"
      ],
      [
        "ni",
        "ng"
      ],
      [
        "ac",
        "ze"
      ],
      [
        "Ġc",
        "hcÄĻ"
      ],
      [
        "Å¼",
        "s"
      ],
      [
        "Ġf",
        "ib"
      ],
      [
        "Ġto",
        "d"
      ],
      [
        "ra",
        "m"
      ],
      [
        "ra",
        "dien"
      ],
      [
        "Ġz",
        "naj"
      ],
      [
        "Ġz",
        "iemnia"
      ],
      [
        "ar",
        "ch"
      ],
      [
        "ar",
        "ray"
      ],
      [
        "Äħ",
        "d"
      ],
      [
        "lo",
        "g"
      ],
      [
        "lo",
        "p"
      ],
      [
        "lo",
        "sure"
      ],
      [
        "uj",
        "ÄĻ"
      ],
      [
        "ĠC",
        "ache"
      ],
      [
        "ge",
        "t"
      ],
      [
        "ent",
        "ion"
      ],
      [
        "Ġ=",
        "="
      ],
      [
        "ĠP",
        "od"
      ],
      [
        "ĠP",
        "op"
      ],
      [
        "ĠP",
        "rze"
      ],
      [
        "()",
        ")"
      ],
      [
        "Ġli",
        "ni"
      ],
      [
        "al",
        "an"
      ],
      [
        "al",
        "se"
      ],
      [
        "at",
        "e"
      ],
      [
        "in",
        "g"
      ],
      [
        "Ġg",
        "radien"
      ],
      [
        "Ġo",
        "b"
      ],
      [
        "ĠCo",
        "T"
      ],
      [
        "ĠJ",
        "ak"
      ],
      [
        "ĠJ",
        "SON"
      ],
      [
        "ĠR",
        "e"
      ],
      [
        "ce",
        "s"
      ],
      [
        "Ġpa",
        "lin"
      ],
      [
        "ĠsÅĤ",
        "owo"
      ],
      [
        "ĠL",
        "RU"
      ],
      [
        "Ġe",
        "mail"
      ],
      [
        "Ġe",
        "lif"
      ],
      [
        "Å¼y",
        "wa"
      ],
      [
        "Ġlist",
        "ÄĻ"
      ],
      [
        "]+",
        "="
      ],
      [
        "fi",
        "b"
      ],
      [
        "ny",
        "ch"
      ],
      [
        "ĠF",
        "astAPI"
      ],
      [
        "ĠM",
        "oE"
      ],
      [
        "Ġlo",
        "g"
      ],
      [
        "Ġco",
        "lle"
      ],
      [
        "mo",
        "ve"
      ],
      [
        "ĠU",
        "RL"
      ],
      [
        "Ġu",
        "ser"
      ],
      [
        "ĠÅĽ",
        "rodek"
      ],
      [
        "Ġdi",
        "v"
      ],
      [
        "ÄĻt",
        "a"
      ],
      [
        "Ġkod",
        "zi"
      ],
      [
        "ÅĽc",
        "i"
      ],
      [
        "ÅĽc",
        "ie"
      ],
      [
        "Ġpami",
        "ÄĻÄĩ"
      ],
      [
        "Ġpami",
        "ÄĻta"
      ],
      [
        "\\.",
        "-]+"
      ],
      [
        "di",
        "an"
      ],
      [
        "kt",
        "y"
      ],
      [
        "num",
        "s"
      ],
      [
        "ran",
        "sfor"
      ],
      [
        "ver",
        "se"
      ],
      [
        "zen",
        "ie"
      ],
      [
        "Ġur",
        "lop"
      ],
      [
        "red",
        "Di"
      ],
      [
        "Ġdl",
        "acze"
      ],
      [
        "ĠwiÄĻ",
        "cej"
      ],
      [
        "Ġme",
        "dian"
      ],
      [
        "ction",
        "s"
      ],
      [
        "=[]",
        ";"
      ],
      [
        "ĠRozwiÄħ",
        "Å¼"
      ],
      [
        "aÅ¼",
        "de"
      ],
      [
        "rde",
        "redDi"
      ],
      [
        "Ġrekure",
        "ncja"
      ],
      [
        "ĠwÄħ",
        "tek"
      ],
      [
        "Ġatt",
        "ention"
      ],
      [
        "Ġziemnia",
        "ku"
      ],
      [
        "ĠPop",
        "raw"
      ],
      [
        "Ġgradien",
        "t"
      ],
      [
        "Ġpalin",
        "drom"
      ],
      [
        "Ġcolle",
        "ctions"
      ],
      [
        "ransfor",
        "mer"
      ],
      [
        "Ġdlacze",
        "go"
      ],
      [
        "rderedDi",
        "ct"
      ],
      [
        "ĠPython",
        "ie"
      ],
      [
        "1",
        "1"
      ],
      [
        "!",
        "="
      ],
      [
        "\"",
        ")"
      ],
      [
        "\"",
        "/"
      ],
      [
        "$",
        "'"
      ],
      [
        "'",
        ","
      ],
      [
        "'",
        "]"
      ],
      [
        "'",
        "^"
      ],
      [
        "(",
        "*"
      ],
      [
        "(",
        "\"/"
      ],
      [
        ")",
        "-"
      ],
      [
        ")",
        "]"
      ],
      [
        ")",
        "`"
      ],
      [
        ")",
        "{"
      ],
      [
        ")",
        "<="
      ],
      [
        "+",
        "$'"
      ],
      [
        ",",
        "']"
      ],
      [
        "0",
        "9"
      ],
      [
        "1",
        "2"
      ],
      [
        "2",
        "2"
      ],
      [
        "6",
        "2"
      ],
      [
        ":",
        "]+"
      ],
      [
        "=",
        "("
      ],
      [
        "@",
        "[\\"
      ],
      [
        "A",
        "V"
      ],
      [
        "C",
        "P"
      ],
      [
        "C",
        "T"
      ],
      [
        "D",
        "ocker"
      ],
      [
        "D",
        "EL"
      ],
      [
        "E",
        "r"
      ],
      [
        "E",
        "CT"
      ],
      [
        "F",
        "astAPI"
      ],
      [
        "F",
        "alse"
      ],
      [
        "G",
        "B"
      ],
      [
        "H",
        "el"
      ],
      [
        "I",
        "N"
      ],
      [
        "L",
        "M"
      ],
      [
        "L",
        "O"
      ],
      [
        "N",
        "T"
      ],
      [
        "N",
        "one"
      ],
      [
        "O",
        "M"
      ],
      [
        "O",
        "rderedDict"
      ],
      [
        "P",
        "U"
      ],
      [
        "P",
        "o"
      ],
      [
        "P",
        "s"
      ],
      [
        "P",
        "OST"
      ],
      [
        "Q",
        "L"
      ],
      [
        "R",
        "OU"
      ],
      [
        "R",
        "OM"
      ],
      [
        "S",
        "c"
      ],
      [
        "S",
        "y"
      ],
      [
        "S",
        "EL"
      ],
      [
        "S",
        "QL"
      ],
      [
        "T",
        "P"
      ],
      [
        "T",
        "TP"
      ],
      [
        "W",
        "yjaÅĽ"
      ],
      [
        "W",
        "yjaÅĽnij"
      ],
      [
        "W",
        "it"
      ],
      [
        "Z",
        "ad"
      ],
      [
        "[",
        "-"
      ],
      [
        "[",
        "',"
      ],
      [
        "]",
        "=="
      ],
      [
        "]",
        "`."
      ],
      [
        "]",
        ")`."
      ],
      [
        "]",
        "!="
      ],
      [
        "a",
        "v"
      ],
      [
        "a",
        "z"
      ],
      [
        "a",
        "re"
      ],
      [
        "a",
        "li"
      ],
      [
        "a",
        "za"
      ],
      [
        "a",
        "Å¼y"
      ],
      [
        "a",
        "mo"
      ],
      [
        "a",
        "dek"
      ],
      [
        "a",
        "Sc"
      ],
      [
        "b",
        "i"
      ],
      [
        "b",
        "li"
      ],
      [
        "b",
        "ny"
      ],
      [
        "b",
        "ug"
      ],
      [
        "b",
        "alan"
      ],
      [
        "c",
        "i"
      ],
      [
        "c",
        "k"
      ],
      [
        "c",
        "l"
      ],
      [
        "c",
        "p"
      ],
      [
        "c",
        "y"
      ],
      [
        "c",
        "ie"
      ],
      [
        "c",
        "ur"
      ],
      [
        "c",
        "hi"
      ],
      [
        "c",
        "zy"
      ],
      [
        "c",
        "al"
      ],
      [
        "c",
        "iej"
      ],
      [
        "d",
        "k"
      ],
      [
        "d",
        "s"
      ],
      [
        "d",
        "y"
      ],
      [
        "d",
        "an"
      ],
      [
        "d",
        "ÅĤ"
      ],
      [
        "d",
        "is"
      ],
      [
        "d",
        "ra"
      ],
      [
        "d",
        "zen"
      ],
      [
        "d",
        "ocker"
      ],
      [
        "d",
        "ly"
      ],
      [
        "e",
        "j"
      ],
      [
        "e",
        "p"
      ],
      [
        "e",
        "t"
      ],
      [
        "e",
        "Åº"
      ],
      [
        "e",
        "sz"
      ],
      [
        "e",
        "bug"
      ],
      [
        "f",
        "a"
      ],
      [
        "f",
        "un"
      ],
      [
        "f",
        "ak"
      ],
      [
        "g",
        "i"
      ],
      [
        "g",
        "l"
      ],
      [
        "g",
        "ow"
      ],
      [
        "g",
        "est"
      ],
      [
        "g",
        "ram"
      ],
      [
        "i",
        "g"
      ],
      [
        "i",
        "v"
      ],
      [
        "i",
        "x"
      ],
      [
        "i",
        "st"
      ],
      [
        "i",
        "se"
      ],
      [
        "i",
        "ni"
      ],
      [
        "i",
        "Å¼"
      ],
      [
        "i",
        "mport"
      ],
      [
        "i",
        "pt"
      ],
      [
        "i",
        "ck"
      ],
      [
        "j",
        "o"
      ],
      [
        "j",
        "ek"
      ],
      [
        "j",
        "rzy"
      ],
      [
        "j",
        "sze"
      ],
      [
        "j",
        "dÅĤ"
      ],
      [
        "k",
        "o"
      ],
      [
        "k",
        "ie"
      ],
      [
        "k",
        "en"
      ],
      [
        "k",
        "ÄĻ"
      ],
      [
        "k",
        "ÅĤ"
      ],
      [
        "k",
        "al"
      ],
      [
        "k",
        "uje"
      ],
      [
        "k",
        "sze"
      ],
      [
        "k",
        "rop"
      ],
      [
        "k",
        "sy"
      ],
      [
        "l",
        "a"
      ],
      [
        "l",
        "d"
      ],
      [
        "l",
        "n"
      ],
      [
        "l",
        "Äħ"
      ],
      [
        "l",
        "at"
      ],
      [
        "l",
        "ower"
      ],
      [
        "l",
        "ko"
      ],
      [
        "m",
        "mi"
      ],
      [
        "m",
        "at"
      ],
      [
        "n",
        "o"
      ],
      [
        "n",
        "ac"
      ],
      [
        "n",
        "Äħ"
      ],
      [
        "n",
        "uje"
      ],
      [
        "n",
        "ien"
      ],
      [
        "o",
        "l"
      ],
      [
        "o",
        "ut"
      ],
      [
        "o",
        "ft"
      ],
      [
        "o",
        "ol"
      ],
      [
        "p",
        "l"
      ],
      [
        "p",
        "p"
      ],
      [
        "p",
        "r"
      ],
      [
        "p",
        "y"
      ],
      [
        "p",
        "re"
      ],
      [
        "p",
        "li"
      ],
      [
        "p",
        "is"
      ],
      [
        "p",
        "and"
      ],
      [
        "p",
        "raw"
      ],
      [
        "p",
        "ing"
      ],
      [
        "p",
        "adek"
      ],
      [
        "q",
        "l"
      ],
      [
        "q",
        "r"
      ],
      [
        "r",
        "s"
      ],
      [
        "r",
        "or"
      ],
      [
        "r",
        "ien"
      ],
      [
        "r",
        "ki"
      ],
      [
        "r",
        "ipt"
      ],
      [
        "s",
        "ow"
      ],
      [
        "s",
        "za"
      ],
      [
        "s",
        "um"
      ],
      [
        "s",
        "ilnia"
      ],
      [
        "s",
        "per"
      ],
      [
        "s",
        "pli"
      ],
      [
        "s",
        "ql"
      ],
      [
        "t",
        "e"
      ],
      [
        "t",
        "h"
      ],
      [
        "t",
        "ÅĤ"
      ],
      [
        "t",
        "uj"
      ],
      [
        "t",
        "ure"
      ],
      [
        "t",
        "owy"
      ],
      [
        "t",
        "wor"
      ],
      [
        "t",
        "ener"
      ],
      [
        "t",
        "nych"
      ],
      [
        "u",
        "ch"
      ],
      [
        "u",
        "ser"
      ],
      [
        "u",
        "rop"
      ],
      [
        "u",
        "duje"
      ],
      [
        "u",
        "Å¼s"
      ],
      [
        "u",
        "ick"
      ],
      [
        "u",
        "krop"
      ],
      [
        "v",
        "ach"
      ],
      [
        "w",
        "rÃ³"
      ],
      [
        "w",
        "nych"
      ],
      [
        "w",
        "nuje"
      ],
      [
        "w",
        "ukrop"
      ],
      [
        "x",
        "per"
      ],
      [
        "x",
        "pand"
      ],
      [
        "y",
        "z"
      ],
      [
        "y",
        "ÅĽ"
      ],
      [
        "y",
        "wa"
      ],
      [
        "y",
        "fi"
      ],
      [
        "y",
        "sy"
      ],
      [
        "y",
        "gi"
      ],
      [
        "z",
        "yt"
      ],
      [
        "z",
        "an"
      ],
      [
        "z",
        "anie"
      ],
      [
        "z",
        "ent"
      ],
      [
        "z",
        "um"
      ],
      [
        "z",
        "uje"
      ],
      [
        "z",
        "dan"
      ],
      [
        "z",
        "gl"
      ],
      [
        "{",
        "':"
      ],
      [
        "{",
        "'}"
      ],
      [
        "}",
        "`"
      ],
      [
        "}",
        "):"
      ],
      [
        "}",
        "':"
      ],
      [
        "Å",
        "ļ"
      ],
      [
        "â",
        "Ĩ"
      ],
      [
        "Ġ",
        "("
      ],
      [
        "Ġ",
        "."
      ],
      [
        "Ġ",
        "5"
      ],
      [
        "Ġ",
        "8"
      ],
      [
        "Ġ",
        ">"
      ],
      [
        "Ġ",
        "{"
      ],
      [
        "Ġ",
        "ro"
      ],
      [
        "Ġ",
        "en"
      ],
      [
        "Ġ",
        "Åº"
      ],
      [
        "Ġ",
        "Od"
      ],
      [
        "Ġ",
        "od"
      ],
      [
        "Ġ",
        "ek"
      ],
      [
        "Ġ",
        "ot"
      ],
      [
        "Ġ",
        "um"
      ],
      [
        "Ġ",
        "<="
      ],
      [
        "Ġ",
        "__"
      ],
      [
        "Ġ",
        "get"
      ],
      [
        "Ġ",
        "}`"
      ],
      [
        "Ġ",
        "Åļ"
      ],
      [
        "Ī",
        "«"
      ],
      [
        "ie",
        "Äĩ"
      ],
      [
        "ie",
        "kt"
      ],
      [
        "yt",
        "mi"
      ],
      [
        "an",
        "t"
      ],
      [
        "Ġi",
        "d"
      ],
      [
        "Ġp",
        "or"
      ],
      [
        "Ġp",
        "at"
      ],
      [
        "Ġp",
        "owa"
      ],
      [
        "Ġp",
        "ÄĻt"
      ],
      [
        "Ġp",
        "ut"
      ],
      [
        "Ġp",
        "ower"
      ],
      [
        "Ġp",
        "iv"
      ],
      [
        "Ġs",
        "er"
      ],
      [
        "Ġs",
        "Äħ"
      ],
      [
        "Ġs",
        "ort"
      ],
      [
        "Ġs",
        "ze"
      ],
      [
        "Ġs",
        "ob"
      ],
      [
        "Ġs",
        "cal"
      ],
      [
        "Ġs",
        "oft"
      ],
      [
        "Ġs",
        "praw"
      ],
      [
        "Ġs",
        "qr"
      ],
      [
        "re",
        "ct"
      ],
      [
        "re",
        "ning"
      ],
      [
        "re",
        "verse"
      ],
      [
        "re",
        "fak"
      ],
      [
        "or",
        "iÄĻ"
      ],
      [
        "or",
        "ld"
      ],
      [
        "ro",
        "ces"
      ],
      [
        "ro",
        "dk"
      ],
      [
        "ro",
        "jek"
      ],
      [
        "ro",
        "zum"
      ],
      [
        "anie",
        "m"
      ],
      [
        "st",
        "ar"
      ],
      [
        "st",
        "il"
      ],
      [
        "st",
        "aj"
      ],
      [
        "st",
        "em"
      ],
      [
        "st",
        "oriÄĻ"
      ],
      [
        "on",
        "ac"
      ],
      [
        "on",
        "tek"
      ],
      [
        "on",
        "gest"
      ],
      [
        "on",
        "tener"
      ],
      [
        "Ġre",
        "ge"
      ],
      [
        "Ġre",
        "di"
      ],
      [
        "Ġre",
        "verse"
      ],
      [
        "Ġre",
        "pre"
      ],
      [
        "de",
        "l"
      ],
      [
        "de",
        "m"
      ],
      [
        "de",
        "que"
      ],
      [
        "de",
        "rs"
      ],
      [
        "ow",
        "ny"
      ],
      [
        "ow",
        "ej"
      ],
      [
        "li",
        "st"
      ],
      [
        "li",
        "sk"
      ],
      [
        "li",
        "ca"
      ],
      [
        "Ġn",
        "ie"
      ],
      [
        "Ġn",
        "um"
      ],
      [
        "Ġn",
        "iÅ¼"
      ],
      [
        "Ġd",
        "x"
      ],
      [
        "Ġd",
        "Ã³"
      ],
      [
        "Ġd",
        "rop"
      ],
      [
        "Ġd",
        "wukrop"
      ],
      [
        "er",
        "ate"
      ],
      [
        "tur",
        "a"
      ],
      [
        "Ġw",
        "ar"
      ],
      [
        "Ġw",
        "ÅĤas"
      ],
      [
        "Ġw",
        "aÅ¼y"
      ],
      [
        "Ġw",
        "eÅº"
      ],
      [
        "Ġw",
        "ysy"
      ],
      [
        "Ġw",
        "zgl"
      ],
      [
        "Ġw",
        "orld"
      ],
      [
        "Ġt",
        "ek"
      ],
      [
        "Ġt",
        "ak"
      ],
      [
        "Ġt",
        "up"
      ],
      [
        "Ġt",
        "wor"
      ],
      [
        "Ġt",
        "ransformer"
      ],
      [
        "Ġt",
        "rening"
      ],
      [
        "est",
        "eÅĽ"
      ],
      [
        "Ġa",
        "kty"
      ],
      [
        "Ġa",
        "pp"
      ],
      [
        "Ġpo",
        "d"
      ],
      [
        "ÄĻ",
        "ki"
      ],
      [
        "ÄĻ",
        "du"
      ],
      [
        "ÄĻ",
        "gow"
      ],
      [
        "ÄĻ",
        "dem"
      ],
      [
        "Ġm",
        "a"
      ],
      [
        "Ġm",
        "od"
      ],
      [
        "Ġm",
        "as"
      ],
      [
        "Ġm",
        "erge"
      ],
      [
        "Ġm",
        "iej"
      ],
      [
        "Ġm",
        "ajÄħ"
      ],
      [
        "Ġm",
        "niej"
      ],
      [
        "Ġm",
        "Äħd"
      ],
      [
        "Ġm",
        "ln"
      ],
      [
        "Ġm",
        "yÅĽ"
      ],
      [
        "le",
        "Å¼"
      ],
      [
        "le",
        "ft"
      ],
      [
        "le",
        "ss"
      ],
      [
        "Ġk",
        "wa"
      ],
      [
        "Ġk",
        "aÅ¼de"
      ],
      [
        "Ġk",
        "ontek"
      ],
      [
        "ÅĤ",
        "ot"
      ],
      [
        "Ġin",
        "t"
      ],
      [
        "Ġin",
        "dek"
      ],
      [
        "se",
        "arch"
      ],
      [
        "ĠA",
        "I"
      ],
      [
        "ĠA",
        "ss"
      ],
      [
        "Ġb",
        "y"
      ],
      [
        "Ġb",
        "in"
      ],
      [
        "Ġb",
        "ase"
      ],
      [
        "Ġb",
        "fs"
      ],
      [
        "Ġb",
        "ran"
      ],
      [
        "Ġb",
        "ug"
      ],
      [
        "Ġb",
        "alan"
      ],
      [
        "Ġb",
        "az"
      ],
      [
        "Ġb",
        "ool"
      ],
      [
        "Ġb",
        "uduje"
      ],
      [
        "Ġb",
        "lisk"
      ],
      [
        "Ġb",
        "search"
      ],
      [
        "pyt",
        "anie"
      ],
      [
        "is",
        "al"
      ],
      [
        "ni",
        "o"
      ],
      [
        "ac",
        "z"
      ],
      [
        "Ġc",
        "aÅĤ"
      ],
      [
        "Ġc",
        "ache"
      ],
      [
        "Ġc",
        "losure"
      ],
      [
        "Ġc",
        "zyt"
      ],
      [
        "Å¼",
        "na"
      ],
      [
        "Å¼",
        "aniem"
      ],
      [
        "Ġf",
        "lo"
      ],
      [
        "Ġf",
        "ast"
      ],
      [
        "Ġf",
        "rien"
      ],
      [
        "Ġto",
        "Å¼s"
      ],
      [
        "Ġto",
        "ken"
      ],
      [
        "ra",
        "k"
      ],
      [
        "ra",
        "z"
      ],
      [
        "ÅĽ",
        "Äĩ"
      ],
      [
        "Ġz",
        "e"
      ],
      [
        "Ġz",
        "as"
      ],
      [
        "Ġz",
        "balan"
      ],
      [
        "Ġz",
        "nac"
      ],
      [
        "Ġz",
        "rozum"
      ],
      [
        "Ġz",
        "ÅĤot"
      ],
      [
        "Ġ3",
        "8"
      ],
      [
        "el",
        "niej"
      ],
      [
        "Ġ2",
        "0"
      ],
      [
        "Ġkrok",
        "ami"
      ],
      [
        "ap",
        "i"
      ],
      [
        "ap",
        "rojek"
      ],
      [
        "ar",
        "y"
      ],
      [
        "ar",
        "ly"
      ],
      [
        "ar",
        "ning"
      ],
      [
        "ar",
        "sza"
      ],
      [
        "ar",
        "ytmi"
      ],
      [
        "Äħ",
        "ca"
      ],
      [
        "ort",
        "ujÄĻ"
      ],
      [
        "len",
        "ie"
      ],
      [
        "na",
        "ÅĤ"
      ],
      [
        "uj",
        "Äħca"
      ],
      [
        "ĠC",
        "OU"
      ],
      [
        "ĠC",
        "losure"
      ],
      [
        "ĠO",
        "rderedDict"
      ],
      [
        "ĠO",
        "bli"
      ],
      [
        "ĠP",
        "anie"
      ],
      [
        "ĠP",
        "ÄĻt"
      ],
      [
        "ĠP",
        "rzy"
      ],
      [
        "ĠP",
        "OST"
      ],
      [
        "ĠP",
        "are"
      ],
      [
        "ĠP",
        "roces"
      ],
      [
        "()",
        "."
      ],
      [
        "()",
        ";"
      ],
      [
        "sk",
        "oc"
      ],
      [
        "zy",
        "sz"
      ],
      [
        "zy",
        "padek"
      ],
      [
        "ĠT",
        "o"
      ],
      [
        "ĠT",
        "ransformer"
      ],
      [
        "Ġli",
        "cz"
      ],
      [
        "Ġli",
        "ÅĽcie"
      ],
      [
        "Ġli",
        "czy"
      ],
      [
        "al",
        "ue"
      ],
      [
        "ot",
        "a"
      ],
      [
        "um",
        "erate"
      ],
      [
        "um",
        "acz"
      ],
      [
        "ĠI",
        "dzie"
      ],
      [
        "Ġpr",
        "ywa"
      ],
      [
        "Ġpr",
        "zypadek"
      ],
      [
        "Ġst",
        "r"
      ],
      [
        "Ġst",
        "op"
      ],
      [
        "Ġst",
        "aÅĤy"
      ],
      [
        "Ġst",
        "ate"
      ],
      [
        "Ġna",
        "wi"
      ],
      [
        "Ġna",
        "jdÅĤ"
      ],
      [
        "at",
        "y"
      ],
      [
        "ch",
        "ach"
      ],
      [
        "lsk",
        "a"
      ],
      [
        "Ã³",
        "rki"
      ],
      [
        "Ã³",
        "wnuje"
      ],
      [
        "Ġg",
        "o"
      ],
      [
        "Ġg",
        "ad"
      ],
      [
        "Ġg",
        "it"
      ],
      [
        "Ġg",
        "ener"
      ],
      [
        "Ġg",
        "Ã³rki"
      ],
      [
        "Ġo",
        "f"
      ],
      [
        "Ġo",
        "ut"
      ],
      [
        "Ġo",
        "ver"
      ],
      [
        "Ġo",
        "pt"
      ],
      [
        "Ġr",
        "un"
      ],
      [
        "ad",
        "ane"
      ],
      [
        "zon",
        "y"
      ],
      [
        "ĠJ",
        "an"
      ],
      [
        "ĠJ",
        "eÅĽ"
      ],
      [
        "ĠJ",
        "av"
      ],
      [
        "ĠJ",
        "esteÅĽ"
      ],
      [
        "as",
        "h"
      ],
      [
        "as",
        "s"
      ],
      [
        "as",
        "y"
      ],
      [
        "ce",
        "d"
      ],
      [
        "un",
        "t"
      ],
      [
        "Ġ'",
        "'"
      ],
      [
        "Ġ'",
        "(["
      ],
      [
        "Ġ'",
        ")]"
      ],
      [
        "ĠW",
        "iÄĻ"
      ],
      [
        "ĠW",
        "ektor"
      ],
      [
        "ĠW",
        "arsza"
      ],
      [
        "Ġâ",
        "Ī«"
      ],
      [
        "Ġpa",
        "ram"
      ],
      [
        "ĠQwazon",
        "a"
      ],
      [
        "ĠL",
        "Å¼e"
      ],
      [
        "ĠL",
        "CP"
      ],
      [
        "ĠL",
        "LM"
      ],
      [
        "ĠL",
        "ep"
      ],
      [
        "Ġe",
        "xpand"
      ],
      [
        "Ġe",
        "arly"
      ],
      [
        "Ġar",
        "ray"
      ],
      [
        "Ġar",
        "chi"
      ],
      [
        "Ġlist",
        "a"
      ],
      [
        "('",
        ",']"
      ],
      [
        "[:",
        "-"
      ],
      [
        "fi",
        "le"
      ],
      [
        "fi",
        "tt"
      ],
      [
        "ne",
        "w"
      ],
      [
        "ob",
        "y"
      ],
      [
        "ob",
        "ne"
      ],
      [
        "oc",
        "zenie"
      ],
      [
        "to",
        "ÅĽci"
      ],
      [
        "to",
        "lica"
      ],
      [
        "wi",
        "th"
      ],
      [
        "ĠB",
        "Y"
      ],
      [
        "ĠB",
        "FS"
      ],
      [
        "ĠB",
        "aza"
      ],
      [
        "ĠB",
        "ig"
      ],
      [
        "ĠB",
        "rak"
      ],
      [
        "ĠF",
        "alse"
      ],
      [
        "ĠF",
        "LO"
      ],
      [
        "ĠF",
        "ROM"
      ],
      [
        "ĠG",
        "ROU"
      ],
      [
        "ĠG",
        "dy"
      ],
      [
        "ĠM",
        "erge"
      ],
      [
        "ĠM",
        "aÅĤy"
      ],
      [
        "ĠM",
        "ix"
      ],
      [
        "ĠS",
        "zyb"
      ],
      [
        "ĠS",
        "twor"
      ],
      [
        "ĠS",
        "zan"
      ],
      [
        "ĠS",
        "ortujÄĻ"
      ],
      [
        "ĠS",
        "tolica"
      ],
      [
        "ĠZ",
        "a"
      ],
      [
        "ĠZ",
        "naj"
      ],
      [
        "ĠZ",
        "refak"
      ],
      [
        "ĠZ",
        "aprojek"
      ],
      [
        "Ġse",
        "t"
      ],
      [
        "Ġse",
        "arch"
      ],
      [
        "Ġdzi",
        "ÄĻki"
      ],
      [
        "Ġco",
        "mmi"
      ],
      [
        "Ġco",
        "unt"
      ],
      [
        "')",
        "':'"
      ],
      [
        "//",
        "="
      ],
      [
        "ET",
        "E"
      ],
      [
        "rze",
        "bny"
      ],
      [
        "sz",
        "ÄĻ"
      ],
      [
        "sub",
        "array"
      ],
      [
        "tor",
        "yz"
      ],
      [
        "tek",
        "tura"
      ],
      [
        "tÃ³",
        "w"
      ],
      [
        "up",
        "lik"
      ],
      [
        "Ġ/",
        ":"
      ],
      [
        "ĠD",
        "ocker"
      ],
      [
        "ĠD",
        "FS"
      ],
      [
        "ĠD",
        "ebug"
      ],
      [
        "ĠD",
        "uplik"
      ],
      [
        "ĠK",
        "im"
      ],
      [
        "ĠK",
        "aÅ¼de"
      ],
      [
        "ĠK",
        "ontener"
      ],
      [
        "ĠK",
        "adane"
      ],
      [
        "ĠU",
        "ser"
      ],
      [
        "ĠU",
        "Å¼ywa"
      ],
      [
        "Ġl",
        "cp"
      ],
      [
        "Ġl",
        "ongest"
      ],
      [
        "Ġq",
        "uick"
      ],
      [
        "Ġu",
        "Å¼ywa"
      ],
      [
        "ĠÅĽ",
        "red"
      ],
      [
        "ĠÅĽ",
        "wie"
      ],
      [
        "Ġpro",
        "du"
      ],
      [
        "Ġpro",
        "ces"
      ],
      [
        "Ġpro",
        "gram"
      ],
      [
        "Ġpro",
        "szÄĻ"
      ],
      [
        "Ġdi",
        "ct"
      ],
      [
        "Ġdi",
        "stil"
      ],
      [
        "Ġprze",
        "d"
      ],
      [
        "Ġprze",
        "z"
      ],
      [
        "Ġprze",
        "pis"
      ],
      [
        "Ġprze",
        "skoc"
      ],
      [
        "Ġfunkc",
        "ja"
      ],
      [
        "={",
        "}):"
      ],
      [
        "={",
        "')':'"
      ],
      [
        "\\.",
        "\\"
      ],
      [
        "cz",
        "ny"
      ],
      [
        "it",
        "em"
      ],
      [
        "pop",
        "left"
      ],
      [
        "pop",
        "item"
      ],
      [
        "wor",
        "ds"
      ],
      [
        "ĠH",
        "AV"
      ],
      [
        "ĠH",
        "TTP"
      ],
      [
        "ĠH",
        "ash"
      ],
      [
        "Ġor",
        "ygi"
      ],
      [
        "Ġor",
        "ders"
      ],
      [
        "Ġur",
        "uch"
      ],
      [
        "Ġde",
        "que"
      ],
      [
        "Ġde",
        "sc"
      ],
      [
        "Ġde",
        "vach"
      ],
      [
        "Ġle",
        "Å¼y"
      ],
      [
        "Ġle",
        "ksy"
      ],
      [
        "Ġle",
        "arning"
      ],
      [
        "Ġsub",
        "array"
      ],
      [
        "lin",
        "ÄĻ"
      ],
      [
        "Ġdl",
        "a"
      ],
      [
        "Ġdo",
        "staj"
      ],
      [
        "Ġdo",
        "linÄĻ"
      ],
      [
        "ĠwiÄĻ",
        "c"
      ],
      [
        "Ġtest",
        "y"
      ],
      [
        "Ġtest",
        "ujÄĻ"
      ],
      [
        "Ġme",
        "mo"
      ],
      [
        "Ġza",
        "leÅ¼"
      ],
      [
        "Ġza",
        "pytanie"
      ],
      [
        "Ġpolski",
        "ch"
      ],
      [
        "':'",
        "[',"
      ],
      [
        "':'",
        "{'}"
      ],
      [
        "ajÄħ",
        "cy"
      ],
      [
        "ĠRozwiÄħ",
        "zanie"
      ],
      [
        "'}",
        "':'{'}"
      ],
      [
        ":]",
        ")"
      ],
      [
        "=''",
        "."
      ],
      [
        "__",
        "("
      ],
      [
        "ami",
        "a"
      ],
      [
        "dzie",
        "lenie"
      ],
      [
        "im",
        "um"
      ],
      [
        "ry",
        "m"
      ],
      [
        "rÃ³",
        "w"
      ],
      [
        "sc",
        "u"
      ],
      [
        "short",
        "en"
      ],
      [
        "ts",
        "with"
      ],
      [
        "wie",
        "ksze"
      ],
      [
        "ĠE",
        "urop"
      ],
      [
        "ĠE",
        "xper"
      ],
      [
        "ĠV",
        "M"
      ],
      [
        "ĠV",
        "alue"
      ],
      [
        "Ġra",
        "ise"
      ],
      [
        "Ġra",
        "te"
      ],
      [
        "Ġhi",
        "storiÄĻ"
      ],
      [
        "Ġshort",
        "ener"
      ],
      [
        "Ġszyb",
        "ki"
      ],
      [
        "Ġszyb",
        "ciej"
      ],
      [
        "lik",
        "acja"
      ],
      [
        "Ġdob",
        "rze"
      ],
      [
        "Ġdob",
        "rym"
      ],
      [
        "Ġdup",
        "s"
      ],
      [
        "Ġdup",
        "likacja"
      ],
      [
        "Ġdzie",
        "l"
      ],
      [
        "Ġdzie",
        "li"
      ],
      [
        "Ġdany",
        "m"
      ],
      [
        "Ġdany",
        "ch"
      ],
      [
        "Ġwektor",
        "y"
      ],
      [
        "Ġty",
        "lko"
      ],
      [
        "Ġty",
        "py"
      ],
      [
        "Ġpot",
        "ÄĻgow"
      ],
      [
        "Ġpot",
        "rzebny"
      ],
      [
        "Ġmo",
        "del"
      ],
      [
        "Ġmo",
        "Å¼na"
      ],
      [
        "ĠmaÅĤy",
        "mi"
      ],
      [
        "ÅĤas",
        "z"
      ],
      [
        "ĠbÅĤ",
        "Äħd"
      ],
      [
        "ĠbÅĤ",
        "ÄĻdu"
      ],
      [
        "Ġfib",
        "onac"
      ],
      [
        "Ġtod",
        "o"
      ],
      [
        "Ġtod",
        "os"
      ],
      [
        "Ġznaj",
        "dÅº"
      ],
      [
        "Ġznaj",
        "duje"
      ],
      [
        "ĠPod",
        "sum"
      ],
      [
        "ĠPod",
        "obne"
      ],
      [
        "ĠPrze",
        "jrzy"
      ],
      [
        "ĠPrze",
        "tÅĤ"
      ],
      [
        "Ġlini",
        "owy"
      ],
      [
        "Ġlini",
        "owo"
      ],
      [
        "Ġob",
        "iekt"
      ],
      [
        "Ġob",
        "raz"
      ],
      [
        "ĠJak",
        "ie"
      ],
      [
        "ĠRe",
        "base"
      ],
      [
        "ĠRe",
        "dis"
      ],
      [
        "Ġlog",
        "arytmi"
      ],
      [
        "\\.-]+",
        "@[\\"
      ],
      [
        "\\.-]+",
        "\\.\\"
      ],
      [
        "Ġmedian",
        "a"
      ],
      [
        "Ġmedian",
        "ÄĻ"
      ],
      [
        "ĠPopraw",
        "ka"
      ],
      [
        "'^",
        "[\\"
      ],
      [
        "(*",
        ")>"
      ],
      [
        "12",
        "0"
      ],
      [
        "Docker",
        "file"
      ],
      [
        "DEL",
        "ETE"
      ],
      [
        "Er",
        "ror"
      ],
      [
        "Hel",
        "lo"
      ],
      [
        "IN",
        "G"
      ],
      [
        "PU",
        "T"
      ],
      [
        "Po",
        "lska"
      ],
      [
        "Sy",
        "stem"
      ],
      [
        "SEL",
        "ECT"
      ],
      [
        "WyjaÅĽ",
        "nien"
      ],
      [
        "Wit",
        "aj"
      ],
      [
        "Zad",
        "anie"
      ],
      [
        "ali",
        "zuje"
      ],
      [
        "amo",
        "ÅĽÄĩ"
      ],
      [
        "aSc",
        "ript"
      ],
      [
        "cl",
        "ass"
      ],
      [
        "dra",
        "towy"
      ],
      [
        "dzen",
        "ia"
      ],
      [
        "et",
        "rÃ³w"
      ],
      [
        "fun",
        "ction"
      ],
      [
        "ist",
        "ant"
      ],
      [
        "ini",
        "t"
      ],
      [
        "jo",
        "in"
      ],
      [
        "kÅĤ",
        "ad"
      ],
      [
        "kal",
        "ne"
      ],
      [
        "lat",
        "ion"
      ],
      [
        "mat",
        "ch"
      ],
      [
        "no",
        "ÅĽci"
      ],
      [
        "pr",
        "int"
      ],
      [
        "sow",
        "ane"
      ],
      [
        "sper",
        "tÃ³w"
      ],
      [
        "spli",
        "t"
      ],
      [
        "user",
        "s"
      ],
      [
        "uÅ¼s",
        "zy"
      ],
      [
        "wrÃ³",
        "Äĩ"
      ],
      [
        "yfi",
        "kuje"
      ],
      [
        "zent",
        "ujÄħca"
      ],
      [
        "zdan",
        "ia"
      ],
      [
        "âĨ",
        "Ĵ"
      ],
      [
        "Ġro",
        "bi"
      ],
      [
        "Ġen",
        "umerate"
      ],
      [
        "ĠÅº",
        "le"
      ],
      [
        "ĠOd",
        "wrÃ³Äĩ"
      ],
      [
        "Ġod",
        "powiedÅº"
      ],
      [
        "Ġek",
        "spertÃ³w"
      ],
      [
        "Ġot",
        "oczenie"
      ],
      [
        "Ġum",
        "owa"
      ],
      [
        "ĠÅļ",
        "rodk"
      ],
      [
        "Ġpor",
        "Ã³wnuje"
      ],
      [
        "Ġpat",
        "rzy"
      ],
      [
        "Ġpowa",
        "Å¼aniem"
      ],
      [
        "ĠpÄĻt",
        "li"
      ],
      [
        "Ġpiv",
        "ota"
      ],
      [
        "Ġser",
        "ce"
      ],
      [
        "Ġsze",
        "fa"
      ],
      [
        "Ġsob",
        "Äħ"
      ],
      [
        "Ġscal",
        "ajÄħcy"
      ],
      [
        "Ġsoft",
        "max"
      ],
      [
        "Ġspraw",
        "dzenia"
      ],
      [
        "Ġsqr",
        "t"
      ],
      [
        "star",
        "tswith"
      ],
      [
        "Ġrege",
        "x"
      ],
      [
        "Ġredi",
        "rect"
      ],
      [
        "Ġrepre",
        "zentujÄħca"
      ],
      [
        "Ġnum",
        "s"
      ],
      [
        "ĠdÃ³",
        "ÅĤ"
      ],
      [
        "Ġdrop",
        "out"
      ],
      [
        "Ġdwukrop",
        "ka"
      ],
      [
        "Ġwar",
        "toÅĽci"
      ],
      [
        "ĠwÅĤas",
        "nÄħ"
      ],
      [
        "Ġwysy",
        "ÅĤasz"
      ],
      [
        "Ġwzgl",
        "ÄĻdem"
      ],
      [
        "Ġtek",
        "ÅĽcie"
      ],
      [
        "Ġtup",
        "le"
      ],
      [
        "Ġtwor",
        "zy"
      ],
      [
        "Ġakty",
        "wnych"
      ],
      [
        "Ġmod",
        "yfikuje"
      ],
      [
        "Ġmas",
        "z"
      ],
      [
        "Ġmiej",
        "scu"
      ],
      [
        "Ġmniej",
        "sze"
      ],
      [
        "ĠmÄħd",
        "ry"
      ],
      [
        "ĠmyÅĽ",
        "lÄħ"
      ],
      [
        "Ġkwa",
        "dratowy"
      ],
      [
        "Ġkontek",
        "st"
      ],
      [
        "Ġindek",
        "s"
      ],
      [
        "ĠAss",
        "istant"
      ],
      [
        "Ġbin",
        "ary"
      ],
      [
        "Ġbran",
        "chach"
      ],
      [
        "Ġbalan",
        "ced"
      ],
      [
        "Ġbaz",
        "owy"
      ],
      [
        "Ġblisk",
        "ie"
      ],
      [
        "isal",
        "num"
      ],
      [
        "ĠcaÅĤ",
        "kÄĻ"
      ],
      [
        "Ġczyt",
        "elniej"
      ],
      [
        "Ġflo",
        "at"
      ],
      [
        "Ġfast",
        "api"
      ],
      [
        "Ġfrien",
        "dly"
      ],
      [
        "ĠtoÅ¼s",
        "amoÅĽÄĩ"
      ],
      [
        "Ġzas",
        "oby"
      ],
      [
        "Ġzbalan",
        "sowane"
      ],
      [
        "Ġznac",
        "zenie"
      ],
      [
        "Ġzrozum",
        "ieÄĩ"
      ],
      [
        "ĠzÅĤot",
        "y"
      ],
      [
        "ĠCOU",
        "NT"
      ],
      [
        "ĠObli",
        "cz"
      ],
      [
        "ĠPÄĻt",
        "la"
      ],
      [
        "ĠPrzy",
        "kÅĤad"
      ],
      [
        "ĠPare",
        "to"
      ],
      [
        "Ġlicz",
        "b"
      ],
      [
        "ĠIdzie",
        "sz"
      ],
      [
        "Ġprywa",
        "tnych"
      ],
      [
        "Ġstop",
        "ping"
      ],
      [
        "Ġstate",
        "less"
      ],
      [
        "Ġnawi",
        "asy"
      ],
      [
        "ĠnajdÅĤ",
        "uÅ¼szy"
      ],
      [
        "Ġgad",
        "ajÄħ"
      ],
      [
        "Ġgener",
        "alizuje"
      ],
      [
        "Ġout",
        "er"
      ],
      [
        "Ġover",
        "fitt"
      ],
      [
        "Ġopt",
        "imum"
      ],
      [
        "ĠJeÅĽ",
        "li"
      ],
      [
        "ĠJav",
        "aScript"
      ],
      [
        "Ġ'([",
        "{':"
      ],
      [
        "Ġ')]",
        "}':"
      ],
      [
        "ĠWiÄĻ",
        "cej"
      ],
      [
        "ĠWarsza",
        "wa"
      ],
      [
        "Ġparam",
        "etrÃ³w"
      ],
      [
        "ĠLÅ¼e",
        "jsze"
      ],
      [
        "ĠLep",
        "iej"
      ],
      [
        "Ġarchi",
        "tektura"
      ],
      [
        "(',']",
        "':'[',"
      ],
      [
        "ĠFLO",
        "Ps"
      ],
      [
        "ĠGROU",
        "P"
      ],
      [
        "ĠMix",
        "ture"
      ],
      [
        "ĠSzyb",
        "kie"
      ],
      [
        "ĠStwor",
        "zony"
      ],
      [
        "ĠSzan",
        "owny"
      ],
      [
        "ĠZnaj",
        "dÅº"
      ],
      [
        "ĠZrefak",
        "toryz"
      ],
      [
        "ĠZaprojek",
        "tuj"
      ],
      [
        "Ġcommi",
        "t"
      ],
      [
        "ĠDuplik",
        "aty"
      ],
      [
        "ĠUÅ¼ywa",
        "j"
      ],
      [
        "Ġquick",
        "sort"
      ],
      [
        "ĠÅĽred",
        "nio"
      ],
      [
        "ĠÅĽwie",
        "cie"
      ],
      [
        "Ġprodu",
        "kty"
      ],
      [
        "Ġprogram",
        "y"
      ],
      [
        "Ġdistil",
        "lation"
      ],
      [
        "Ġprzepis",
        "uje"
      ],
      [
        "Ġprzeskoc",
        "zysz"
      ],
      [
        "={')':'",
        "(',']':'[',"
      ],
      [
        "ĠHAV",
        "ING"
      ],
      [
        "Ġorygi",
        "naÅĤ"
      ],
      [
        "Ġuruch",
        "amia"
      ],
      [
        "Ġdesc",
        "ent"
      ],
      [
        "Ġleksy",
        "kalne"
      ],
      [
        "Ġdostaj",
        "esz"
      ],
      [
        "ĠzaleÅ¼",
        "noÅĽci"
      ],
      [
        "ĠEurop",
        "ie"
      ],
      [
        "ĠExper",
        "ts"
      ],
      [
        "ĠValue",
        "Error"
      ],
      [
        "ĠpotÄĻgow",
        "anie"
      ],
      [
        "Ġfibonac",
        "ci"
      ],
      [
        "ĠPodsum",
        "uj"
      ],
      [
        "ĠPrzejrzy",
        "j"
      ],
      [
        "ĠPrzetÅĤ",
        "umacz"
      ],
      [
        "Ġobiekt",
        "u"
      ],
      [
        "Ġlogarytmi",
        "czny"
      ],
      [
        "WyjaÅĽnien",
        "ie"
      ],
      [
        "ĠÅļrodk",
        "owej"
      ],
      [
        "Ġoverfitt",
        "ing"
      ],
      [
        "ĠZrefaktoryz",
        "uj"
      ],
      [
        "={')':'(',']':'[',",
        "'}':'{'}"
      ],
      [
        "s",
        "u"
      ],
      [
        "Ġc",
        "za"
      ],
      [
        "Ġcza",
        "su"
      ]
    ]
  }
}